<?xml version="1.0"?>
<opencv_storage>
<stage5>
  <maxWeakCount>15</maxWeakCount>
  <stageThreshold>-1.0599777698516846e+00</stageThreshold>
  <weakClassifiers>
    <_>
      <internalNodes>
        0 -1 1004 1.1342784389853477e-02</internalNodes>
      <leafValues>
        -4.1197821497917175e-01 5.0556790828704834e-01</leafValues></_>
    <_>
      <internalNodes>
        0 -1 70230 -4.7570001333951950e-02</internalNodes>
      <leafValues>
        4.8119252920150757e-01 -3.2987642288208008e-01</leafValues></_>
    <_>
      <internalNodes>
        0 -1 52767 7.1143684908747673e-03</internalNodes>
      <leafValues>
        -3.8453954458236694e-01 2.6035711169242859e-01</leafValues></_>
    <_>
      <internalNodes>
        0 -1 66563 4.4296823441982269e-02</internalNodes>
      <leafValues>
        -3.4135362505912781e-01 3.8879600167274475e-01</leafValues></_>
    <_>
      <internalNodes>
        0 -1 106606 1.6626577824354172e-02</internalNodes>
      <leafValues>
        -1.2619003653526306e-01 7.9115557670593262e-01</leafValues></_>
    <_>
      <internalNodes>
        0 -1 8254 -2.5309253484010696e-02</internalNodes>
      <leafValues>
        6.9136893749237061e-01 -1.3030587136745453e-01</leafValues></_>
    <_>
      <internalNodes>
        0 -1 49880 6.5611908212304115e-03</internalNodes>
      <leafValues>
        -1.6735398769378662e-01 5.7561075687408447e-01</leafValues></_>
    <_>
      <internalNodes>
        0 -1 162317 -5.0258764531463385e-04</internalNodes>
      <leafValues>
        -7.8526169061660767e-01 1.4031912386417389e-01</leafValues></_>
    <_>
      <internalNodes>
        0 -1 25783 -9.8857209086418152e-03</internalNodes>
      <leafValues>
        4.0968805551528931e-01 -2.4730896949768066e-01</leafValues></_>
    <_>
      <internalNodes>
        0 -1 152669 -7.1179545484483242e-03</internalNodes>
      <leafValues>
        -5.1389753818511963e-01 1.7664213478565216e-01</leafValues></_>
    <_>
      <internalNodes>
        0 -1 142878 -6.9266860373318195e-03</internalNodes>
      <leafValues>
        5.4951184988021851e-01 -1.9307430088520050e-01</leafValues></_>
    <_>
      <internalNodes>
        0 -1 49438 5.3987819701433182e-03</internalNodes>
      <leafValues>
        -1.7099304497241974e-01 5.2716219425201416e-01</leafValues></_>
    <_>
      <internalNodes>
        0 -1 60973 1.1352799832820892e-02</internalNodes>
      <leafValues>
        -1.6486592590808868e-01 6.2140780687332153e-01</leafValues></_>
    <_>
      <internalNodes>
        0 -1 122985 4.9975011497735977e-03</internalNodes>
      <leafValues>
        -1.9900584220886230e-01 5.1344305276870728e-01</leafValues></_>
    <_>
      <internalNodes>
        0 -1 11038 -1.4650681987404823e-03</internalNodes>
      <leafValues>
        -7.2872358560562134e-01 1.6601555049419403e-01</leafValues></_></weakClassifiers></stage5>
</opencv_storage>
