<?xml version="1.0"?>
<opencv_storage>
<stage27>
  <maxWeakCount>24</maxWeakCount>
  <stageThreshold>-7.2776901721954346e-01</stageThreshold>
  <weakClassifiers>
    <_>
      <internalNodes>
        0 -1 37941 1.7061371356248856e-02</internalNodes>
      <leafValues>
        -9.1967403888702393e-02 5.6028366088867188e-01</leafValues></_>
    <_>
      <internalNodes>
        0 -1 1 9.8911521490663290e-04</internalNodes>
      <leafValues>
        9.5694422721862793e-02 -5.5768334865570068e-01</leafValues></_>
    <_>
      <internalNodes>
        0 -1 60837 1.4247754588723183e-02</internalNodes>
      <leafValues>
        -1.1974103748798370e-01 4.4951650500297546e-01</leafValues></_>
    <_>
      <internalNodes>
        0 -1 158499 3.5878461785614491e-03</internalNodes>
      <leafValues>
        1.1908190697431564e-01 -7.1199017763137817e-01</leafValues></_>
    <_>
      <internalNodes>
        0 -1 60682 -1.9627789035439491e-02</internalNodes>
      <leafValues>
        7.2305476665496826e-01 -9.6109040081501007e-02</leafValues></_>
    <_>
      <internalNodes>
        0 -1 22756 -2.6125070871785283e-04</internalNodes>
      <leafValues>
        2.3720435798168182e-01 -2.3753200471401215e-01</leafValues></_>
    <_>
      <internalNodes>
        0 -1 20292 2.8239586390554905e-03</internalNodes>
      <leafValues>
        -1.4460709691047668e-01 3.5965088009834290e-01</leafValues></_>
    <_>
      <internalNodes>
        0 -1 4191 -1.5021982602775097e-02</internalNodes>
      <leafValues>
        3.6933323740959167e-01 -1.5468774735927582e-01</leafValues></_>
    <_>
      <internalNodes>
        0 -1 21464 6.9744745269417763e-03</internalNodes>
      <leafValues>
        -2.7155083417892456e-01 1.9820562005043030e-01</leafValues></_>
    <_>
      <internalNodes>
        0 -1 39382 -1.8587511032819748e-02</internalNodes>
      <leafValues>
        7.0313376188278198e-01 -7.8124396502971649e-02</leafValues></_>
    <_>
      <internalNodes>
        0 -1 113576 -4.7334553673863411e-03</internalNodes>
      <leafValues>
        -6.0760354995727539e-01 8.0781802535057068e-02</leafValues></_>
    <_>
      <internalNodes>
        0 -1 129183 2.3558560758829117e-02</internalNodes>
      <leafValues>
        -6.9123566150665283e-02 6.6126662492752075e-01</leafValues></_>
    <_>
      <internalNodes>
        0 -1 140389 -5.1742623327299953e-04</internalNodes>
      <leafValues>
        2.2967095673084259e-01 -2.3661449551582336e-01</leafValues></_>
    <_>
      <internalNodes>
        0 -1 8313 -3.1134631484746933e-02</internalNodes>
      <leafValues>
        -3.9735746383666992e-01 1.3073168694972992e-01</leafValues></_>
    <_>
      <internalNodes>
        0 -1 41550 2.5406107306480408e-04</internalNodes>
      <leafValues>
        -2.5846648216247559e-01 1.8737524747848511e-01</leafValues></_>
    <_>
      <internalNodes>
        0 -1 89655 -4.0270644240081310e-03</internalNodes>
      <leafValues>
        2.0374566316604614e-01 -2.5172114372253418e-01</leafValues></_>
    <_>
      <internalNodes>
        0 -1 630 -2.3348881304264069e-01</internalNodes>
      <leafValues>
        7.6735490560531616e-01 -7.8282535076141357e-02</leafValues></_>
    <_>
      <internalNodes>
        0 -1 80822 2.6327376253902912e-03</internalNodes>
      <leafValues>
        -1.5872579813003540e-01 2.9973965883255005e-01</leafValues></_>
    <_>
      <internalNodes>
        0 -1 43329 9.5003098249435425e-02</internalNodes>
      <leafValues>
        8.2796290516853333e-02 -6.8526560068130493e-01</leafValues></_>
    <_>
      <internalNodes>
        0 -1 101909 3.4919075667858124e-02</internalNodes>
      <leafValues>
        -1.0759872198104858e-01 5.2162182331085205e-01</leafValues></_>
    <_>
      <internalNodes>
        0 -1 57789 1.3041788479313254e-03</internalNodes>
      <leafValues>
        1.6097636520862579e-01 -3.6759907007217407e-01</leafValues></_>
    <_>
      <internalNodes>
        0 -1 70736 -1.9194155465811491e-03</internalNodes>
      <leafValues>
        -5.5023574829101562e-01 9.4281733036041260e-02</leafValues></_>
    <_>
      <internalNodes>
        0 -1 60310 4.6207860112190247e-02</internalNodes>
      <leafValues>
        -6.1835147440433502e-02 1.</leafValues></_>
    <_>
      <internalNodes>
        0 -1 154747 -4.4877808541059494e-03</internalNodes>
      <leafValues>
        -6.1213517189025879e-01 1.0003285109996796e-01</leafValues></_></weakClassifiers></stage27>
</opencv_storage>
