<?xml version="1.0"?>
<opencv_storage>
<stage3>
  <maxWeakCount>10</maxWeakCount>
  <stageThreshold>-9.7293025255203247e-01</stageThreshold>
  <weakClassifiers>
    <_>
      <internalNodes>
        0 -1 61204 1.2055158615112305e-02</internalNodes>
      <leafValues>
        -4.1512605547904968e-01 6.0987651348114014e-01</leafValues></_>
    <_>
      <internalNodes>
        0 -1 74344 8.7627973407506943e-03</internalNodes>
      <leafValues>
        -4.5459383726119995e-01 5.2167981863021851e-01</leafValues></_>
    <_>
      <internalNodes>
        0 -1 60253 -2.3283526301383972e-02</internalNodes>
      <leafValues>
        4.4576978683471680e-01 -3.8227215409278870e-01</leafValues></_>
    <_>
      <internalNodes>
        0 -1 29932 -3.5439693927764893e-01</internalNodes>
      <leafValues>
        -8.6566388607025146e-01 1.7268650233745575e-01</leafValues></_>
    <_>
      <internalNodes>
        0 -1 103446 3.0782248824834824e-02</internalNodes>
      <leafValues>
        -3.3266407251358032e-01 3.1072145700454712e-01</leafValues></_>
    <_>
      <internalNodes>
        0 -1 8833 7.0917503908276558e-03</internalNodes>
      <leafValues>
        1.4195838570594788e-01 -7.4225586652755737e-01</leafValues></_>
    <_>
      <internalNodes>
        0 -1 63570 5.4489129979629070e-05</internalNodes>
      <leafValues>
        -3.1650951504707336e-01 3.1318324804306030e-01</leafValues></_>
    <_>
      <internalNodes>
        0 -1 21977 1.6215855721384287e-03</internalNodes>
      <leafValues>
        -3.0240741372108459e-01 3.3955836296081543e-01</leafValues></_>
    <_>
      <internalNodes>
        0 -1 13354 -7.2958199307322502e-03</internalNodes>
      <leafValues>
        5.5199271440505981e-01 -1.9811117649078369e-01</leafValues></_>
    <_>
      <internalNodes>
        0 -1 59611 -3.1304273754358292e-02</internalNodes>
      <leafValues>
        6.7339265346527100e-01 -1.5754942595958710e-01</leafValues></_></weakClassifiers></stage3>
</opencv_storage>
