<?xml version="1.0"?>
<opencv_storage>
<stage6>
  <maxWeakCount>15</maxWeakCount>
  <stageThreshold>-9.9539178609848022e-01</stageThreshold>
  <weakClassifiers>
    <_>
      <internalNodes>
        0 -1 38828 2.3644721135497093e-02</internalNodes>
      <leafValues>
        -2.0596206188201904e-01 5.8015269041061401e-01</leafValues></_>
    <_>
      <internalNodes>
        0 -1 92895 7.3026022873818874e-03</internalNodes>
      <leafValues>
        -3.3298298716545105e-01 3.5668838024139404e-01</leafValues></_>
    <_>
      <internalNodes>
        0 -1 51901 -3.6498188972473145e-01</internalNodes>
      <leafValues>
        -7.7070385217666626e-01 1.3259351253509521e-01</leafValues></_>
    <_>
      <internalNodes>
        0 -1 25712 -8.0906329676508904e-03</internalNodes>
      <leafValues>
        2.9119142889976501e-01 -3.9963567256927490e-01</leafValues></_>
    <_>
      <internalNodes>
        0 -1 3240 -3.9201915264129639e-02</internalNodes>
      <leafValues>
        8.8517940044403076e-01 -1.4989681541919708e-01</leafValues></_>
    <_>
      <internalNodes>
        0 -1 10019 2.4798370432108641e-03</internalNodes>
      <leafValues>
        1.4723360538482666e-01 -6.5064972639083862e-01</leafValues></_>
    <_>
      <internalNodes>
        0 -1 77437 2.7849659323692322e-02</internalNodes>
      <leafValues>
        -8.0886922776699066e-02 7.4156868457794189e-01</leafValues></_>
    <_>
      <internalNodes>
        0 -1 157882 -2.7928154915571213e-02</internalNodes>
      <leafValues>
        7.3453444242477417e-01 -1.4199668169021606e-01</leafValues></_>
    <_>
      <internalNodes>
        0 -1 143071 7.1659218519926071e-03</internalNodes>
      <leafValues>
        -9.5256365835666656e-02 7.1619802713394165e-01</leafValues></_>
    <_>
      <internalNodes>
        0 -1 6681 -4.5200879685580730e-03</internalNodes>
      <leafValues>
        -6.6326403617858887e-01 1.5187923610210419e-01</leafValues></_>
    <_>
      <internalNodes>
        0 -1 85672 -3.9325989782810211e-03</internalNodes>
      <leafValues>
        3.8927239179611206e-01 -2.2905723750591278e-01</leafValues></_>
    <_>
      <internalNodes>
        0 -1 25265 -1.8171001283917576e-04</internalNodes>
      <leafValues>
        -5.1135510206222534e-01 1.4806701242923737e-01</leafValues></_>
    <_>
      <internalNodes>
        0 -1 31874 1.5219131018966436e-03</internalNodes>
      <leafValues>
        -1.4063358306884766e-01 5.4368668794631958e-01</leafValues></_>
    <_>
      <internalNodes>
        0 -1 160374 -8.5648533422499895e-04</internalNodes>
      <leafValues>
        4.4210398197174072e-01 -1.8084335327148438e-01</leafValues></_>
    <_>
      <internalNodes>
        0 -1 162025 4.5373564353212714e-04</internalNodes>
      <leafValues>
        1.2885579466819763e-01 -6.5308970212936401e-01</leafValues></_></weakClassifiers></stage6>
</opencv_storage>
