<?xml version="1.0"?>
<opencv_storage>
<stage16>
  <maxWeakCount>6</maxWeakCount>
  <stageThreshold>-4.8792949318885803e-01</stageThreshold>
  <weakClassifiers>
    <_>
      <internalNodes>
        0 -1 6605 -1057520413 273156629 -1879048183 1610621000 704851968
        -1072496239 -1575337973 -1432205195</internalNodes>
      <leafValues>
        -6.0703814029693604e-01 4.5098039507865906e-01</leafValues></_>
    <_>
      <internalNodes>
        0 -1 5479 167905629 1901232512 -1593503663 749510918 -1073167959
        -2013265856 -1977204689 -1429469136</internalNodes>
      <leafValues>
        -6.8479084968566895e-01 4.1246110200881958e-01</leafValues></_>
    <_>
      <internalNodes>
        0 -1 9 109130646 -783150654 285474961 -37682939 -2145893621
        -392163254 1388512187 2034987510</internalNodes>
      <leafValues>
        -6.4185321331024170e-01 4.6298217773437500e-01</leafValues></_>
    <_>
      <internalNodes>
        0 -1 423 1128456768 1447190531 1073758208 -1698410483 1351254144
        -2004353020 -939337564 -631780597</internalNodes>
      <leafValues>
        -5.7620561122894287e-01 5.3892815113067627e-01</leafValues></_>
    <_>
      <internalNodes>
        0 -1 5224 -485402338 1379930241 16847647 1569772304 -1291316481
        436994187 -1962926039 -1883324351</internalNodes>
      <leafValues>
        -6.3209050893783569e-01 5.2188682556152344e-01</leafValues></_>
    <_>
      <internalNodes>
        0 -1 6985 1884545770 546347153 968 92340235 -1073741415
        1611137158 538304550 -339482450</internalNodes>
      <leafValues>
        -6.1635541915893555e-01 5.6880128383636475e-01</leafValues></_></weakClassifiers></stage16>
</opencv_storage>
