<?xml version="1.0"?>
<opencv_storage>
<stage20>
  <maxWeakCount>4</maxWeakCount>
  <stageThreshold>-3.8185957074165344e-01</stageThreshold>
  <weakClassifiers>
    <_>
      <internalNodes>
        0 -1 4784 -2121772080 -158973696 -1848831999 -619281791 42059864
        -1333690361 -1610059640 -6682231</internalNodes>
      <leafValues>
        -5.6545960903167725e-01 4.6031746268272400e-01</leafValues></_>
    <_>
      <internalNodes>
        0 -1 3131 -1475460449 52828160 -2143125211 825119042 75964592
        -1514012416 1174929801 997880450</internalNodes>
      <leafValues>
        -6.9520258903503418e-01 4.0988132357597351e-01</leafValues></_>
    <_>
      <internalNodes>
        0 -1 3031 -854400574 18514305 1363706360 92340289 1879058513
        2018508931 131811 -205987704</internalNodes>
      <leafValues>
        -7.3691946268081665e-01 4.0398687124252319e-01</leafValues></_>
    <_>
      <internalNodes>
        0 -1 4348 -306258215 -1484890262 -1476591627 534837872
        -1082384760 -134217730 -17438050 -1125287944</internalNodes>
      <leafValues>
        -5.1513886451721191e-01 6.0714054107666016e-01</leafValues></_></weakClassifiers></stage20>
</opencv_storage>
