<?xml version="1.0"?>
<opencv_storage>
<cascade>
  <stageType>BOOST</stageType>
  <featureType>LBP</featureType>
  <height>24</height>
  <width>24</width>
  <stageParams>
    <boostType>GAB</boostType>
    <minHitRate>9.9500000476837158e-01</minHitRate>
    <maxFalseAlarm>5.0000000000000000e-01</maxFalseAlarm>
    <weightTrimRate>9.4999999999999996e-01</weightTrimRate>
    <maxDepth>1</maxDepth>
    <maxWeakCount>100</maxWeakCount></stageParams>
  <featureParams>
    <maxCatCount>256</maxCatCount>
    <featSize>1</featSize></featureParams>
  <stageNum>50</stageNum>
  <stages>
    <!-- stage 0 -->
    <_>
      <maxWeakCount>2</maxWeakCount>
      <stageThreshold>1.5606562793254852e-01</stageThreshold>
      <weakClassifiers>
        <_>
          <internalNodes>
            0 -1 46 134743040 255807335 262587 264232639 253566006
            -1619050497 20393787 524226351</internalNodes>
          <leafValues>
            -7.7777779102325439e-01 9.5061731338500977e-01</leafValues></_>
        <_>
          <internalNodes>
            0 -1 61 150994946 219218050 4357 65536 536873665 1074266112
            164506 18550795</internalNodes>
          <leafValues>
            -6.8243980407714844e-01 9.3384343385696411e-01</leafValues></_></weakClassifiers></_>
    <!-- stage 1 -->
    <_>
      <maxWeakCount>4</maxWeakCount>
      <stageThreshold>4.1432493925094604e-01</stageThreshold>
      <weakClassifiers>
        <_>
          <internalNodes>
            0 -1 2 107216930 58689150 1073680464 1467940849 1971205172
            2147467007 2085160447 394223439</internalNodes>
          <leafValues>
            -4.9473685026168823e-01 9.2795032262802124e-01</leafValues></_>
        <_>
          <internalNodes>
            0 -1 144 65664 -771670016 131328 -2088697854 16777408
            -1073741814 16777352 478232731</internalNodes>
          <leafValues>
            -6.6539168357849121e-01 8.4387266635894775e-01</leafValues></_>
        <_>
          <internalNodes>
            0 -1 163 36704272 629653310 -1091125257 1059061759
            -696277507 1073577333 1005058415 484645943</internalNodes>
          <leafValues>
            -7.2281479835510254e-01 8.1643825769424438e-01</leafValues></_>
        <_>
          <internalNodes>
            0 -1 80 204997689 1073709044 1857994742 -67584067 670900165
            938966015 1072453086 -1428611855</internalNodes>
          <leafValues>
            -6.3468325138092041e-01 9.0752100944519043e-01</leafValues></_></weakClassifiers></_>
    <!-- stage 2 -->
    <_>
      <maxWeakCount>4</maxWeakCount>
      <stageThreshold>4.1615343093872070e-01</stageThreshold>
      <weakClassifiers>
        <_>
          <internalNodes>
            0 -1 95 151129088 -1078751237 1061117857 524238783 523847674
            -1883275266 1057693182 507452795</internalNodes>
          <leafValues>
            -5.5844157934188843e-01 9.0279465913772583e-01</leafValues></_>
        <_>
          <internalNodes>
            0 -1 145 -1934615520 -1921187979 -33283 -1661706763
            -1635870860 -1 -537256194 -1657793035</internalNodes>
          <leafValues>
            -5.6533938646316528e-01 8.6442816257476807e-01</leafValues></_>
        <_>
          <internalNodes>
            0 -1 119 153097368 1052565503 738082781 -271712264
            -1380008705 -458753 -1971388418 -1145545352</internalNodes>
          <leafValues>
            -6.0154968500137329e-01 8.6925458908081055e-01</leafValues></_>
        <_>
          <internalNodes>
            0 -1 170 100663296 1075450881 65553 285802513 16809995
            -1837104640 116911 940114067</internalNodes>
          <leafValues>
            -7.4951964616775513e-01 7.7213716506958008e-01</leafValues></_></weakClassifiers></_>
    <!-- stage 3 -->
    <_>
      <maxWeakCount>4</maxWeakCount>
      <stageThreshold>4.4659948348999023e-01</stageThreshold>
      <weakClassifiers>
        <_>
          <internalNodes>
            0 -1 20 100663296 251845844 -1082782476 2138488574 525337651
            528449535 1530879454 2071420662</internalNodes>
          <leafValues>
            -7.5862067937850952e-01 8.8361042737960815e-01</leafValues></_>
        <_>
          <internalNodes>
            0 -1 132 262669312 721707002 -1745061121 455901172
            2105351264 -813924483 1072987352 -93106358</internalNodes>
          <leafValues>
            -5.8528208732604980e-01 8.9233356714248657e-01</leafValues></_>
        <_>
          <internalNodes>
            0 -1 72 1117814272 -2043113693 884404073 20053872 1156922623
            1358233462 -973656578 -1721501707</internalNodes>
          <leafValues>
            -6.0148090124130249e-01 8.3028489351272583e-01</leafValues></_>
        <_>
          <internalNodes>
            0 -1 76 33558528 1124073488 285245441 285290497 524491
            131072 578945058 -552369656</internalNodes>
          <leafValues>
            -7.2786366939544678e-01 7.5667762756347656e-01</leafValues></_></weakClassifiers></_>
    <!-- stage 4 -->
    <_>
      <maxWeakCount>4</maxWeakCount>
      <stageThreshold>4.8508238792419434e-01</stageThreshold>
      <weakClassifiers>
        <_>
          <internalNodes>
            0 -1 130 959975024 1067989756 -196752 -1892123528 1054629752
            -4263948 2137800700 -1674521264</internalNodes>
          <leafValues>
            -4.0909090638160706e-01 9.0640395879745483e-01</leafValues></_>
        <_>
          <internalNodes>
            0 -1 57 3276962 448251120 1605242861 91423973 792637101 -515
            669781948 220923045</internalNodes>
          <leafValues>
            -5.7815754413604736e-01 8.3796489238739014e-01</leafValues></_>
        <_>
          <internalNodes>
            0 -1 37 220335311 -1910276178 805224231 1042870142 342363500
            -1359183884 209505694 -1942684451</internalNodes>
          <leafValues>
            -5.8140343427658081e-01 8.1184387207031250e-01</leafValues></_>
        <_>
          <internalNodes>
            0 -1 150 1262001206 -1178763300 -1090588707 1043398652
            -419799402 -42074114 536223613 -601864976</internalNodes>
          <leafValues>
            -6.5500783920288086e-01 8.0703639984130859e-01</leafValues></_></weakClassifiers></_>
    <!-- stage 5 -->
    <_>
      <maxWeakCount>4</maxWeakCount>
      <stageThreshold>6.2120890617370605e-01</stageThreshold>
      <weakClassifiers>
        <_>
          <internalNodes>
            0 -1 97 8192 1348468736 -536866829 1349742384 208954933
            -134807817 204909813 -1003467460</internalNodes>
          <leafValues>
            -4.3209877610206604e-01 8.9743590354919434e-01</leafValues></_>
        <_>
          <internalNodes>
            0 -1 94 -1968701360 1873440692 113176437 -4751376 804542452
            -1745354883 1551654397 -1397006476</internalNodes>
          <leafValues>
            -4.1918393969535828e-01 9.3458729982376099e-01</leafValues></_>
        <_>
          <internalNodes>
            0 -1 106 1379929696 32898932 1858001217 1018560511 243268840
            -455254027 1425986768 -185172485</internalNodes>
          <leafValues>
            -6.1905008554458618e-01 8.3902400732040405e-01</leafValues></_>
        <_>
          <internalNodes>
            0 -1 89 3313682 690093873 972631600 2020673072 217879608
            -17367051 -289751370 2019966375</internalNodes>
          <leafValues>
            -5.9176421165466309e-01 8.5876381397247314e-01</leafValues></_></weakClassifiers></_>
    <!-- stage 6 -->
    <_>
      <maxWeakCount>4</maxWeakCount>
      <stageThreshold>4.6147072315216064e-01</stageThreshold>
      <weakClassifiers>
        <_>
          <internalNodes>
            0 -1 83 2244752 381386576 255559200 -1087144013 209650906
            83845118 507453106 238518271</internalNodes>
          <leafValues>
            -4.1025641560554504e-01 8.9051097631454468e-01</leafValues></_>
        <_>
          <internalNodes>
            0 -1 142 745017344 1739340662 2130558845 1932296120
            385637868 607936511 -1753383524 167278388</internalNodes>
          <leafValues>
            -5.5108243227005005e-01 8.6145633459091187e-01</leafValues></_>
        <_>
          <internalNodes>
            0 -1 69 -1610477488 25231360 285278215 -1339277296
            -2147483647 -1442840574 536969384 503316880</internalNodes>
          <leafValues>
            -6.4060139656066895e-01 7.6709204912185669e-01</leafValues></_>
        <_>
          <internalNodes>
            0 -1 98 1746026752 -717127676 16859401 1091571713
            -1610579831 -1065353088 33587234 -1660911606</internalNodes>
          <leafValues>
            -6.4504987001419067e-01 7.9194247722625732e-01</leafValues></_></weakClassifiers></_>
    <!-- stage 7 -->
    <_>
      <maxWeakCount>4</maxWeakCount>
      <stageThreshold>4.7071275115013123e-01</stageThreshold>
      <weakClassifiers>
        <_>
          <internalNodes>
            0 -1 68 -906305808 -2140733458 -22354752 -387776771
            -109807760 1333264254 -713263279 1978989924</internalNodes>
          <leafValues>
            -3.9024388790130615e-01 8.9486551284790039e-01</leafValues></_>
        <_>
          <internalNodes>
            0 -1 101 -1060715328 -1839141003 -190425401 -798493834
            2088142089 82278389 893288426 -764283577</internalNodes>
          <leafValues>
            -3.4469199180603027e-01 9.1663873195648193e-01</leafValues></_>
        <_>
          <internalNodes>
            0 -1 178 -1067136880 17827849 1073745922 470288409
            1610711041 134217728 -2130018302 377107</internalNodes>
          <leafValues>
            -7.0240110158920288e-01 7.3399591445922852e-01</leafValues></_>
        <_>
          <internalNodes>
            0 -1 71 -1440742320 1807646268 -1090768962 938770431
            116789588 -1375764619 1471968638 -190726</internalNodes>
          <leafValues>
            -6.3839042186737061e-01 7.8473848104476929e-01</leafValues></_></weakClassifiers></_>
    <!-- stage 8 -->
    <_>
      <maxWeakCount>4</maxWeakCount>
      <stageThreshold>2.8844654560089111e-01</stageThreshold>
      <weakClassifiers>
        <_>
          <internalNodes>
            0 -1 112 237774976 785612531 775122976 1059717031 535633166
            796868597 268386097 457138174</internalNodes>
          <leafValues>
            -6.2068963050842285e-01 8.7410926818847656e-01</leafValues></_>
        <_>
          <internalNodes>
            0 -1 118 -2004721304 1426063361 9 286529153 16941184
            587333632 268451848 -1610553084</internalNodes>
          <leafValues>
            -5.5958002805709839e-01 8.2376992702484131e-01</leafValues></_>
        <_>
          <internalNodes>
            0 -1 192 393814534 549388206 1928740514 -2006548749
            1744770564 -1652588700 -16943218 -1225326601</internalNodes>
          <leafValues>
            -7.0099949836730957e-01 7.7096492052078247e-01</leafValues></_>
        <_>
          <internalNodes>
            0 -1 84 -2130586952 268537921 -2088501244 -1669262078
            1610612756 -1874329464 -2147481591 33638917</internalNodes>
          <leafValues>
            -6.8559867143630981e-01 7.8529816865921021e-01</leafValues></_></weakClassifiers></_>
    <!-- stage 9 -->
    <_>
      <maxWeakCount>4</maxWeakCount>
      <stageThreshold>5.1729148626327515e-01</stageThreshold>
      <weakClassifiers>
        <_>
          <internalNodes>
            0 -1 1 572915872 670244898 1325297655 108931068 134158192
            1073214967 255098487 3503986</internalNodes>
          <leafValues>
            -6.7346936464309692e-01 8.6133962869644165e-01</leafValues></_>
        <_>
          <internalNodes>
            0 -1 153 223936272 292689 1996340500 73203699 536739658
            -1644298275 -704784908 -1921614436</internalNodes>
          <leafValues>
            -4.9025583267211914e-01 8.3672755956649780e-01</leafValues></_>
        <_>
          <internalNodes>
            0 -1 3 268444516 -1610611576 1 1476591632 537034754
            1610612736 268501024 -644628262</internalNodes>
          <leafValues>
            -5.3538012504577637e-01 8.4675943851470947e-01</leafValues></_>
        <_>
          <internalNodes>
            0 -1 125 -87411523 250916860 -318832773 -1428897931
            -285786508 -285245579 242500708 -1574291660</internalNodes>
          <leafValues>
            -6.4539557695388794e-01 7.8417724370956421e-01</leafValues></_></weakClassifiers></_>
    <!-- stage 10 -->
    <_>
      <maxWeakCount>4</maxWeakCount>
      <stageThreshold>5.4284185171127319e-01</stageThreshold>
      <weakClassifiers>
        <_>
          <internalNodes>
            0 -1 15 -291320004 1546579948 -1092157702 -2109669396
            1143233612 -1079582754 2103869439 -469434377</internalNodes>
          <leafValues>
            -1.1811023950576782e-01 9.2496764659881592e-01</leafValues></_>
        <_>
          <internalNodes>
            0 -1 154 1983844384 638135061 1465557520 170884735
            -1076385397 587079424 -680036864 376655666</internalNodes>
          <leafValues>
            -5.3847187757492065e-01 7.8258246183395386e-01</leafValues></_>
        <_>
          <internalNodes>
            0 -1 123 -419455839 -1091125385 -1161888135 -1435599516
            -1359078025 1878982527 1589274230 -1573903311</internalNodes>
          <leafValues>
            -4.9392616748809814e-01 8.6668580770492554e-01</leafValues></_>
        <_>
          <internalNodes>
            0 -1 86 -732949816 159383553 -2147477232 553648128 272630403
            1744830464 1887438913 843073066</internalNodes>
          <leafValues>
            -6.7078214883804321e-01 7.1283644437789917e-01</leafValues></_></weakClassifiers></_>
    <!-- stage 11 -->
    <_>
      <maxWeakCount>4</maxWeakCount>
      <stageThreshold>5.2208369970321655e-01</stageThreshold>
      <weakClassifiers>
        <_>
          <internalNodes>
            0 -1 126 188285696 20274 -1078329344 37224378 1064656641
            19889535 268468352 1048567</internalNodes>
          <leafValues>
            -6.6037738323211670e-01 8.6776858568191528e-01</leafValues></_>
        <_>
          <internalNodes>
            0 -1 166 -608778486 724171184 855260977 875790083 -705185952
            90109813 1442141473 1580367855</internalNodes>
          <leafValues>
            -4.3215179443359375e-01 8.3229839801788330e-01</leafValues></_>
        <_>
          <internalNodes>
            0 -1 38 1398994754 934571886 -1360115006 -1964003588
            91562087 70090303 1450548478 1148182014</internalNodes>
          <leafValues>
            -4.9384161829948425e-01 8.5314285755157471e-01</leafValues></_>
        <_>
          <internalNodes>
            0 -1 39 -805205790 1409433600 -2147385280 -2013032312
            142639111 268963840 264704 1090570760</internalNodes>
          <leafValues>
            -6.8414163589477539e-01 7.0184820890426636e-01</leafValues></_></weakClassifiers></_>
    <!-- stage 12 -->
    <_>
      <maxWeakCount>4</maxWeakCount>
      <stageThreshold>5.2263414859771729e-01</stageThreshold>
      <weakClassifiers>
        <_>
          <internalNodes>
            0 -1 65 1655595522 149335730 1793865312 -352846098
            1853818720 401506133 1986807042 -160465037</internalNodes>
          <leafValues>
            -4.6478873491287231e-01 8.8419783115386963e-01</leafValues></_>
        <_>
          <internalNodes>
            0 -1 62 581410914 -1828556704 385087024 66320067 -738524537
            1207954094 -979647128 -1059332609</internalNodes>
          <leafValues>
            -4.6063333749771118e-01 8.6845666170120239e-01</leafValues></_>
        <_>
          <internalNodes>
            0 -1 26 -561061266 172681001 -1362220422 182452223
            1476216293 392134487 1879000063 1844967423</internalNodes>
          <leafValues>
            -5.9115368127822876e-01 7.6688754558563232e-01</leafValues></_>
        <_>
          <internalNodes>
            0 -1 91 -866881928 -1468596615 -1159536664 -1872560422
            -59048079 242417654 -1654594160 -1029996709</internalNodes>
          <leafValues>
            -6.3886672258377075e-01 8.0236512422561646e-01</leafValues></_></weakClassifiers></_>
    <!-- stage 13 -->
    <_>
      <maxWeakCount>4</maxWeakCount>
      <stageThreshold>6.0968214273452759e-01</stageThreshold>
      <weakClassifiers>
        <_>
          <internalNodes>
            0 -1 79 -16846918 1093468158 -86976 1651177462 -537432252
            1297610623 -436218028 1148674071</internalNodes>
          <leafValues>
            -4.7692307829856873e-01 8.7544912099838257e-01</leafValues></_>
        <_>
          <internalNodes>
            0 -1 141 236979220 1864925176 1073512253 -1440120867
            1602082802 -1073741831 -1644890380 -1712310927</internalNodes>
          <leafValues>
            -4.2378571629524231e-01 8.8500684499740601e-01</leafValues></_>
        <_>
          <internalNodes>
            0 -1 43 -1465374656 1874640627 -1343488260 -1073957124
            518560529 -310952587 1308378453 -1972054843</internalNodes>
          <leafValues>
            -6.0054796934127808e-01 7.9477739334106445e-01</leafValues></_>
        <_>
          <internalNodes>
            0 -1 175 -340398078 1342701642 1342177280 67174401
            -2147483520 1073940480 -2147448672 92832140</internalNodes>
          <leafValues>
            -5.5022585391998291e-01 8.5533833503723145e-01</leafValues></_></weakClassifiers></_>
    <!-- stage 14 -->
    <_>
      <maxWeakCount>4</maxWeakCount>
      <stageThreshold>2.9192268848419189e-01</stageThreshold>
      <weakClassifiers>
        <_>
          <internalNodes>
            0 -1 141 236979216 103317490 1073512061 992509917 528242552
            922746873 502562430 2049981776</internalNodes>
          <leafValues>
            -3.1578946113586426e-01 8.7864077091217041e-01</leafValues></_>
        <_>
          <internalNodes>
            0 -1 99 204030080 1348824145 1415827665 1433861708
            1644103008 569722535 1182193356 -1035350185</internalNodes>
          <leafValues>
            -4.9878659844398499e-01 8.0761021375656128e-01</leafValues></_>
        <_>
          <internalNodes>
            0 -1 173 279288092 269193220 1073742082 286294018
            -2145206240 134234112 688256 1210662912</internalNodes>
          <leafValues>
            -6.7277652025222778e-01 7.2691220045089722e-01</leafValues></_>
        <_>
          <internalNodes>
            0 -1 0 637698176 -1056964350 268503297 301990016 1140851080
            -2147483648 -2013245432 -1753069501</internalNodes>
          <leafValues>
            -7.2155177593231201e-01 7.1835643053054810e-01</leafValues></_></weakClassifiers></_>
    <!-- stage 15 -->
    <_>
      <maxWeakCount>4</maxWeakCount>
      <stageThreshold>5.0517153739929199e-01</stageThreshold>
      <weakClassifiers>
        <_>
          <internalNodes>
            0 -1 28 -420061664 -288686084 -622136156 788332286
            1669095232 250937341 259423604 1903820343</internalNodes>
          <leafValues>
            -5.2380955219268799e-01 8.7574672698974609e-01</leafValues></_>
        <_>
          <internalNodes>
            0 -1 120 -2010643432 733544436 -1343324225 1064664760
            536698622 -1342210054 1071635834 -1740276408</internalNodes>
          <leafValues>
            -4.4062599539756775e-01 8.2147276401519775e-01</leafValues></_>
        <_>
          <internalNodes>
            0 -1 4 1076031763 -385859520 -2147483372 65537 1073784832
            1358958593 -2147483646 -1992130558</internalNodes>
          <leafValues>
            -5.1243257522583008e-01 8.3940654993057251e-01</leafValues></_>
        <_>
          <internalNodes>
            0 -1 128 -536771454 1142534165 67633153 35717376 -2147481215
            -2105015296 1275201584 134660226</internalNodes>
          <leafValues>
            -6.3189828395843506e-01 7.5608313083648682e-01</leafValues></_></weakClassifiers></_>
    <!-- stage 16 -->
    <_>
      <maxWeakCount>4</maxWeakCount>
      <stageThreshold>5.3288161754608154e-01</stageThreshold>
      <weakClassifiers>
        <_>
          <internalNodes>
            0 -1 8 745818624 81852088 1861663076 1115619319 928863828
            1971256789 1073708386 1048575991</internalNodes>
          <leafValues>
            -5.4285717010498047e-01 8.8915663957595825e-01</leafValues></_>
        <_>
          <internalNodes>
            0 -1 169 750256400 -1159340291 2147442543 -1371750408
            1069002616 -37891 117211134 -1483206729</internalNodes>
          <leafValues>
            -3.9863196015357971e-01 9.0398168563842773e-01</leafValues></_>
        <_>
          <internalNodes>
            0 -1 155 487071280 5666708 1073610741 2051833593 -1073922062
            1173159925 -592492 -2139348995</internalNodes>
          <leafValues>
            -5.9464055299758911e-01 8.5009568929672241e-01</leafValues></_>
        <_>
          <internalNodes>
            0 -1 30 40763983 1316946078 1035683263 79561898 1061107624
            -1086374425 791096876 453543145</internalNodes>
          <leafValues>
            -6.6561609506607056e-01 8.5917973518371582e-01</leafValues></_></weakClassifiers></_>
    <!-- stage 17 -->
    <_>
      <maxWeakCount>4</maxWeakCount>
      <stageThreshold>-3.1006661057472229e-01</stageThreshold>
      <weakClassifiers>
        <_>
          <internalNodes>
            0 -1 82 14960128 334688096 1353410496 1983119294 -403896444
            393738231 -1610778782 903741255</internalNodes>
          <leafValues>
            -1.5044248104095459e-01 9.1105461120605469e-01</leafValues></_>
        <_>
          <internalNodes>
            0 -1 12 -105927489 577654446 1324283622 1148636911 342757950
            208633789 134073719 7722231</internalNodes>
          <leafValues>
            -3.2153713703155518e-01 8.5635983943939209e-01</leafValues></_>
        <_>
          <internalNodes>
            0 -1 33 48163456 1902313312 854484545 -738983993 1711228036
            1234694119 2113363436 -128516129</internalNodes>
          <leafValues>
            -5.2026110887527466e-01 7.8874498605728149e-01</leafValues></_>
        <_>
          <internalNodes>
            0 -1 6 1044335146 982462186 801000627 1367279182 -1744976349
            -1484817417 1442316095 1811898227</internalNodes>
          <leafValues>
            -6.2683200836181641e-01 7.6719927787780762e-01</leafValues></_></weakClassifiers></_>
    <!-- stage 18 -->
    <_>
      <maxWeakCount>4</maxWeakCount>
      <stageThreshold>5.5644953250885010e-01</stageThreshold>
      <weakClassifiers>
        <_>
          <internalNodes>
            0 -1 16 754908420 -1368064002 -559099676 -2147287124
            1702199124 1601535487 -138578580 1683021821</internalNodes>
          <leafValues>
            -5.0000000000000000e-01 8.8221156597137451e-01</leafValues></_>
        <_>
          <internalNodes>
            0 -1 34 2061707778 956235450 -285970838 1105264488
            -798568538 1087799295 -67701914 42301311</internalNodes>
          <leafValues>
            -4.6004086732864380e-01 8.2433098554611206e-01</leafValues></_>
        <_>
          <internalNodes>
            0 -1 108 823492608 -1874843644 268443752 1358954498
            -532668020 -2147483648 -2139060216 -2095046136</internalNodes>
          <leafValues>
            -6.1022204160690308e-01 8.0680185556411743e-01</leafValues></_>
        <_>
          <internalNodes>
            0 -1 187 -95374016 -1364070595 -17371339 2105073524
            -1095409919 263511551 1853418572 -996833522</internalNodes>
          <leafValues>
            -5.3987097740173340e-01 9.0860700607299805e-01</leafValues></_></weakClassifiers></_>
    <!-- stage 19 -->
    <_>
      <maxWeakCount>5</maxWeakCount>
      <stageThreshold>1.3637837953865528e-02</stageThreshold>
      <weakClassifiers>
        <_>
          <internalNodes>
            0 -1 7 586031654 49163839 721321510 108932902 4066677
            40856951 1442797360 1196913494</internalNodes>
          <leafValues>
            -6.0714286565780640e-01 8.6966824531555176e-01</leafValues></_>
        <_>
          <internalNodes>
            0 -1 15 1052142966 -54591508 -1092157702 440467436
            1143231560 532045663 1566998527 -66584708</internalNodes>
          <leafValues>
            -5.1371127367019653e-01 7.9305154085159302e-01</leafValues></_>
        <_>
          <internalNodes>
            0 -1 160 1612905488 36794165 721350314 577297140 652718626
            1471348607 650020003 -1499105921</internalNodes>
          <leafValues>
            -5.3328895568847656e-01 8.5135883092880249e-01</leafValues></_>
        <_>
          <internalNodes>
            0 -1 58 966819612 -38920712 788430583 1068383669 795244030
            -1115688964 494599548 -1813749899</internalNodes>
          <leafValues>
            -5.7763415575027466e-01 8.2227551937103271e-01</leafValues></_>
        <_>
          <internalNodes>
            0 -1 116 -567698816 1546854716 582905592 1608531108
            747906248 -933458316 376460521 1478112341</internalNodes>
          <leafValues>
            -6.1604386568069458e-01 8.2688879966735840e-01</leafValues></_></weakClassifiers></_>
    <!-- stage 20 -->
    <_>
      <maxWeakCount>4</maxWeakCount>
      <stageThreshold>3.2260003685951233e-01</stageThreshold>
      <weakClassifiers>
        <_>
          <internalNodes>
            0 -1 29 -2113871862 67373060 -2147483520 539110443 645201749
            104234870 1631518583 544241463</internalNodes>
          <leafValues>
            -5.3333336114883423e-01 8.7142854928970337e-01</leafValues></_>
        <_>
          <internalNodes>
            0 -1 81 -804994944 268435457 1224736768 -2147418112
            -2143256448 -2147344382 67665921 -1878884312</internalNodes>
          <leafValues>
            -5.0477534532546997e-01 8.1650376319885254e-01</leafValues></_>
        <_>
          <internalNodes>
            0 -1 177 -770322304 134349824 128 1342181888 -2146402304
            41943040 -2004844159 1376323923</internalNodes>
          <leafValues>
            -6.8239885568618774e-01 7.1862179040908813e-01</leafValues></_>
        <_>
          <internalNodes>
            0 -1 194 1359071232 1572866 -2147483648 4227076 193 0 4224
            -1073569262</internalNodes>
          <leafValues>
            -6.8293344974517822e-01 7.2637611627578735e-01</leafValues></_></weakClassifiers></_>
    <!-- stage 21 -->
    <_>
      <maxWeakCount>4</maxWeakCount>
      <stageThreshold>4.7438797354698181e-01</stageThreshold>
      <weakClassifiers>
        <_>
          <internalNodes>
            0 -1 174 788475682 269886 788506144 4161319 -543212032
            104642430 165111329 106168257</internalNodes>
          <leafValues>
            -4.5714285969734192e-01 8.8192772865295410e-01</leafValues></_>
        <_>
          <internalNodes>
            0 -1 124 788147825 787120046 1878458363 800750448 2147008447
            -32780 2147302741 169358452</internalNodes>
          <leafValues>
            -6.2376838922500610e-01 7.5670009851455688e-01</leafValues></_>
        <_>
          <internalNodes>
            0 -1 52 -1478548950 115769258 985542178 1711992698
            -494973112 81755989 -44808860 -159910017</internalNodes>
          <leafValues>
            -6.2221956253051758e-01 7.6223254203796387e-01</leafValues></_>
        <_>
          <internalNodes>
            0 -1 87 1108074627 -2043498959 -1073841632 1149173616
            259933386 -2038472841 -16815086 -1207980430</internalNodes>
          <leafValues>
            -5.4202026128768921e-01 8.7130683660507202e-01</leafValues></_></weakClassifiers></_>
    <!-- stage 22 -->
    <_>
      <maxWeakCount>4</maxWeakCount>
      <stageThreshold>-1.3153253495693207e-01</stageThreshold>
      <weakClassifiers>
        <_>
          <internalNodes>
            0 -1 183 792145410 7011874 716136050 540769778 268373504
            1832091511 -302020960 -2009692314</internalNodes>
          <leafValues>
            -3.1250000000000000e-02 9.1191709041595459e-01</leafValues></_>
        <_>
          <internalNodes>
            0 -1 10 -810597131 255847669 -1360220305 242282213 89984124
            -1887601036 71714295 3469183</internalNodes>
          <leafValues>
            -3.7347847223281860e-01 8.1718361377716064e-01</leafValues></_>
        <_>
          <internalNodes>
            0 -1 189 -907804624 1005010811 -83984777 1357537261
            1006110380 -1073774594 -1963671553 -1476215183</internalNodes>
          <leafValues>
            -4.8101940751075745e-01 8.2612961530685425e-01</leafValues></_>
        <_>
          <internalNodes>
            0 -1 196 -1950374901 32124727 2076142928 83034024 1333729032
            -1904443529 -1521109344 -2142612166</internalNodes>
          <leafValues>
            -5.5293369293212891e-01 7.8309190273284912e-01</leafValues></_></weakClassifiers></_>
    <!-- stage 23 -->
    <_>
      <maxWeakCount>4</maxWeakCount>
      <stageThreshold>5.6724768877029419e-01</stageThreshold>
      <weakClassifiers>
        <_>
          <internalNodes>
            0 -1 53 -4522112 -839192580 804715584 -2132754500 -268509420
            1174405119 1953985600 1161879413</internalNodes>
          <leafValues>
            -6.7346936464309692e-01 8.6133962869644165e-01</leafValues></_>
        <_>
          <internalNodes>
            0 -1 122 -1222444414 2116531772 707768002 1862238207
            251643592 670957141 549402144 896923007</internalNodes>
          <leafValues>
            -4.0850585699081421e-01 8.8555639982223511e-01</leafValues></_>
        <_>
          <internalNodes>
            0 -1 72 1073922176 -805302272 -1056964608 1896890392
            -1879007084 -2147467264 16810705 -1064435712</internalNodes>
          <leafValues>
            -6.1398535966873169e-01 7.8632742166519165e-01</leafValues></_>
        <_>
          <internalNodes>
            0 -1 14 1810687599 -1099379074 -1342410762 179332973
            1298080863 1870134868 75451510 257232487</internalNodes>
          <leafValues>
            -5.6566298007965088e-01 8.4779340028762817e-01</leafValues></_></weakClassifiers></_>
    <!-- stage 24 -->
    <_>
      <maxWeakCount>4</maxWeakCount>
      <stageThreshold>4.7349849343299866e-01</stageThreshold>
      <weakClassifiers>
        <_>
          <internalNodes>
            0 -1 49 2113584 1077836986 67108872 243252784 1583206484
            -1615351814 242581461 71203713</internalNodes>
          <leafValues>
            -5.6000000238418579e-01 8.5647058486938477e-01</leafValues></_>
        <_>
          <internalNodes>
            0 -1 111 -326574256 1788936189 -155238553 708336496
            -1628695468 -1359413324 888993012 -2035779980</internalNodes>
          <leafValues>
            -4.8687431216239929e-01 8.2080209255218506e-01</leafValues></_>
        <_>
          <internalNodes>
            0 -1 185 1258290512 -1570046089 -487064704 966835173
            -1839745920 -825034795 -2055973869 -1875880365</internalNodes>
          <leafValues>
            -5.5759531259536743e-01 7.8600025177001953e-01</leafValues></_>
        <_>
          <internalNodes>
            0 -1 115 -2013118448 286326784 1 285278345 557192
            -2012741504 -1845493750 -1912462975</internalNodes>
          <leafValues>
            -6.3332629203796387e-01 7.3437249660491943e-01</leafValues></_></weakClassifiers></_>
    <!-- stage 25 -->
    <_>
      <maxWeakCount>4</maxWeakCount>
      <stageThreshold>3.5799601674079895e-01</stageThreshold>
      <weakClassifiers>
        <_>
          <internalNodes>
            0 -1 63 522731592 1025912738 481840280 145706619 -151372578
            1065254911 268394487 188173943</internalNodes>
          <leafValues>
            -1.7171716690063477e-01 8.9513111114501953e-01</leafValues></_>
        <_>
          <internalNodes>
            0 -1 127 787426983 48660351 -1090537739 540737535 134165872
            1878884215 2130662769 -931334797</internalNodes>
          <leafValues>
            -5.5042684078216553e-01 7.5242072343826294e-01</leafValues></_>
        <_>
          <internalNodes>
            0 -1 54 82864 -1859878912 17 -1857814520 569856 -1870643192
            98312 50495616</internalNodes>
          <leafValues>
            -5.8904719352722168e-01 7.4945473670959473e-01</leafValues></_>
        <_>
          <internalNodes>
            0 -1 120 -2130683880 -1862205440 1109917833 -2130706174 1032
            32 32779 -1744236544</internalNodes>
          <leafValues>
            -7.0050859451293945e-01 6.6593462228775024e-01</leafValues></_></weakClassifiers></_>
    <!-- stage 26 -->
    <_>
      <maxWeakCount>5</maxWeakCount>
      <stageThreshold>3.9182871580123901e-02</stageThreshold>
      <weakClassifiers>
        <_>
          <internalNodes>
            0 -1 146 -2064382976 -1267372431 -285282556 409270132
            1635540052 771194741 -285988492 1618003829</internalNodes>
          <leafValues>
            -3.6111110448837280e-01 8.7681162357330322e-01</leafValues></_>
        <_>
          <internalNodes>
            0 -1 176 -482351023 174767910 2134867232 674266935 226471842
            -1904836610 368407925 -579379718</internalNodes>
          <leafValues>
            -2.5372055172920227e-01 9.0274655818939209e-01</leafValues></_>
        <_>
          <internalNodes>
            0 -1 75 -1052712766 12587040 -2147385276 -401485824 8915072
            1216348160 -1073731568 419975232</internalNodes>
          <leafValues>
            -5.5408632755279541e-01 7.2971963882446289e-01</leafValues></_>
        <_>
          <internalNodes>
            0 -1 191 -1694784705 775650874 -1358955002 -2106671313
            -679490046 -998342877 -352411858 -1412137348</internalNodes>
          <leafValues>
            -5.5390137434005737e-01 8.0372917652130127e-01</leafValues></_>
        <_>
          <internalNodes>
            0 -1 134 -1073512359 -2147381245 285261849 33554433
            1075839177 277118976 1074331912 38404161</internalNodes>
          <leafValues>
            -6.3238757848739624e-01 7.5634497404098511e-01</leafValues></_></weakClassifiers></_>
    <!-- stage 27 -->
    <_>
      <maxWeakCount>4</maxWeakCount>
      <stageThreshold>6.9144624471664429e-01</stageThreshold>
      <weakClassifiers>
        <_>
          <internalNodes>
            0 -1 193 786833930 242139046 -1972704758 587200510
            2147446528 1451194237 -134353048 23068542</internalNodes>
          <leafValues>
            -3.0555555224418640e-01 8.7198066711425781e-01</leafValues></_>
        <_>
          <internalNodes>
            0 -1 32 -793522032 1371371093 836727426 -503416834
            1660067976 -252182794 1417667042 -1065361417</internalNodes>
          <leafValues>
            -2.6526847481727600e-01 9.0944838523864746e-01</leafValues></_>
        <_>
          <internalNodes>
            0 -1 88 -1564965664 -1083932714 2057988786 1367998442
            612762324 1878982653 -1653809332 -1654262180</internalNodes>
          <leafValues>
            -4.8431196808815002e-01 7.9532521963119507e-01</leafValues></_>
        <_>
          <internalNodes>
            0 -1 181 3149184 -453103628 -1073938668 381452150 840703184
            -1418756098 222643665 -2076668565</internalNodes>
          <leafValues>
            -6.0567086935043335e-01 7.4273359775543213e-01</leafValues></_></weakClassifiers></_>
    <!-- stage 28 -->
    <_>
      <maxWeakCount>5</maxWeakCount>
      <stageThreshold>1.9176132977008820e-01</stageThreshold>
      <weakClassifiers>
        <_>
          <internalNodes>
            0 -1 40 1243753128 -1439696346 749665795 1824239138
            604442368 927936251 875503403 438529843</internalNodes>
          <leafValues>
            -1.2500000000000000e-01 8.8557213544845581e-01</leafValues></_>
        <_>
          <internalNodes>
            0 -1 96 -609420462 1135525666 31546960 811663074 1820208904
            1599532884 880105540 1685448535</internalNodes>
          <leafValues>
            -4.7030100226402283e-01 7.6614463329315186e-01</leafValues></_>
        <_>
          <internalNodes>
            0 -1 137 -1664516016 -684185069 725524248 926420325
            834604441 706101031 263355 -299381232</internalNodes>
          <leafValues>
            -4.0832832455635071e-01 9.5625030994415283e-01</leafValues></_>
        <_>
          <internalNodes>
            0 -1 143 -93798384 1415741303 1878421477 16332290 970966990
            -654360707 2097151742 -1703576201</internalNodes>
          <leafValues>
            -4.2984873056411743e-01 9.0697097778320312e-01</leafValues></_>
        <_>
          <internalNodes>
            0 -1 114 -1637643182 107949782 -1124211481 -1611288844
            788450498 2130706302 -2072656686 -572562074</internalNodes>
          <leafValues>
            -6.2177836894989014e-01 7.5866985321044922e-01</leafValues></_></weakClassifiers></_>
    <!-- stage 29 -->
    <_>
      <maxWeakCount>5</maxWeakCount>
      <stageThreshold>1.0566863231360912e-02</stageThreshold>
      <weakClassifiers>
        <_>
          <internalNodes>
            0 -1 85 2124393216 175046648 536870912 543948730 325009152
            58654591 1677094441 586842367</internalNodes>
          <leafValues>
            -5.3846156597137451e-01 8.5849058628082275e-01</leafValues></_>
        <_>
          <internalNodes>
            0 -1 182 1291203073 1354727226 -1359335834 -1239089366
            -411068920 343834487 587096810 -1974110372</internalNodes>
          <leafValues>
            -3.2238075137138367e-01 8.7062352895736694e-01</leafValues></_>
        <_>
          <internalNodes>
            0 -1 139 1857740664 1056693716 1878851575 2066656757
            267956054 -1099137028 754333513 87055709</internalNodes>
          <leafValues>
            -6.0606306791305542e-01 7.1662402153015137e-01</leafValues></_>
        <_>
          <internalNodes>
            0 -1 138 -2012114622 1563189760 -1887555729 489298865
            -2013153064 -1895932101 488826875 102196276</internalNodes>
          <leafValues>
            -5.6887048482894897e-01 8.4145671129226685e-01</leafValues></_>
        <_>
          <internalNodes>
            0 -1 156 -1178465710 -1615172064 816448665 1562519286
            -1468109679 -1960329432 1281643648 -2140842645</internalNodes>
          <leafValues>
            -5.4361373186111450e-01 8.0214262008666992e-01</leafValues></_></weakClassifiers></_>
    <!-- stage 30 -->
    <_>
      <maxWeakCount>5</maxWeakCount>
      <stageThreshold>3.9351356029510498e-01</stageThreshold>
      <weakClassifiers>
        <_>
          <internalNodes>
            0 -1 121 69207040 606633812 -1342637135 994639741 1602049876
            1023369173 2121564021 1348757492</internalNodes>
          <leafValues>
            -3.8461539149284363e-01 8.6826348304748535e-01</leafValues></_>
        <_>
          <internalNodes>
            0 -1 168 2121547296 1123761854 1073741172 1399373500
            -1778483996 892665339 -411230625 -1936714224</internalNodes>
          <leafValues>
            -2.9242774844169617e-01 8.5569894313812256e-01</leafValues></_>
        <_>
          <internalNodes>
            0 -1 93 792620733 -5130 805203967 -1694699652 1878517564
            -1032487170 436000205 -989651780</internalNodes>
          <leafValues>
            -3.7580797076225281e-01 9.4199496507644653e-01</leafValues></_>
        <_>
          <internalNodes>
            0 -1 60 -781756280 -360742642 1363111217 624740907
            -2084862552 1874777754 -1590771494 136531217</internalNodes>
          <leafValues>
            -4.5661047101020813e-01 8.0860006809234619e-01</leafValues></_>
        <_>
          <internalNodes>
            0 -1 105 -262480300 -1682066824 795766566 1584828414
            -1838636115 -1199620167 122565863 804355124</internalNodes>
          <leafValues>
            -4.9803042411804199e-01 8.2233256101608276e-01</leafValues></_></weakClassifiers></_>
    <!-- stage 31 -->
    <_>
      <maxWeakCount>4</maxWeakCount>
      <stageThreshold>5.5864447355270386e-01</stageThreshold>
      <weakClassifiers>
        <_>
          <internalNodes>
            0 -1 18 749338628 -1094960008 -32771 -16900227 939408861
            1073709047 1069291388 2133599296</internalNodes>
          <leafValues>
            -4.0983605384826660e-01 8.6412394046783447e-01</leafValues></_>
        <_>
          <internalNodes>
            0 -1 100 -18824128 -1222400204 2088533592 1173815031
            83666629 1987516279 1173710120 241694583</internalNodes>
          <leafValues>
            -4.7771847248077393e-01 8.0965191125869751e-01</leafValues></_>
        <_>
          <internalNodes>
            0 -1 31 -1871863222 -249057497 1118656189 -1842941977
            99568652 -445837393 1441159070 208076726</internalNodes>
          <leafValues>
            -4.5976203680038452e-01 8.5468029975891113e-01</leafValues></_>
        <_>
          <internalNodes>
            0 -1 136 -536493344 1090527272 164000 1090584576 32776
            -2147483640 133256 536913929</internalNodes>
          <leafValues>
            -6.5536934137344360e-01 6.9080018997192383e-01</leafValues></_></weakClassifiers></_>
    <!-- stage 32 -->
    <_>
      <maxWeakCount>5</maxWeakCount>
      <stageThreshold>9.7335681319236755e-02</stageThreshold>
      <weakClassifiers>
        <_>
          <internalNodes>
            0 -1 27 1174414434 1605168782 -1364164714 739294206 71584772
            2002616191 1042571126 989904255</internalNodes>
          <leafValues>
            -3.0952382087707520e-01 8.8970589637756348e-01</leafValues></_>
        <_>
          <internalNodes>
            0 -1 59 -1075103592 1810558762 1793745441 924873586
            2130658312 -178290841 1828648076 1154826097</internalNodes>
          <leafValues>
            -3.9822420477867126e-01 8.8346219062805176e-01</leafValues></_>
        <_>
          <internalNodes>
            0 -1 102 1657193158 -1791232338 620454968 1375172399
            -253819776 1580694388 139359361 830043868</internalNodes>
          <leafValues>
            -5.6094253063201904e-01 8.2212245464324951e-01</leafValues></_>
        <_>
          <internalNodes>
            0 -1 172 1074219416 977288727 -1091305602 824245792
            674569218 1870098301 388315067 -1838010444</internalNodes>
          <leafValues>
            -5.3245949745178223e-01 8.9290630817413330e-01</leafValues></_>
        <_>
          <internalNodes>
            0 -1 11 -2113765152 -654213120 1 -2147418112 -2147483631
            -2147483648 540674 1912742017</internalNodes>
          <leafValues>
            -6.8380898237228394e-01 7.3186784982681274e-01</leafValues></_></weakClassifiers></_>
    <!-- stage 33 -->
    <_>
      <maxWeakCount>4</maxWeakCount>
      <stageThreshold>4.4507950544357300e-01</stageThreshold>
      <weakClassifiers>
        <_>
          <internalNodes>
            0 -1 17 -17027540 11468516 -1059062388 639958700 1719627124
            645595004 1727528396 1611724406</internalNodes>
          <leafValues>
            -4.8275861144065857e-01 8.6460804939270020e-01</leafValues></_>
        <_>
          <internalNodes>
            0 -1 50 12527154 1082746534 -604016798 351245431 -1929488555
            82784255 1207904116 494229367</internalNodes>
          <leafValues>
            -5.3994548320770264e-01 7.1546721458435059e-01</leafValues></_>
        <_>
          <internalNodes>
            0 -1 47 1596895999 -1505810702 2138975847 1207567380
            -1426086240 1877812279 180235809 1320955159</internalNodes>
          <leafValues>
            -4.5069035887718201e-01 8.9738237857818604e-01</leafValues></_>
        <_>
          <internalNodes>
            0 -1 35 536904434 17891392 -2147483516 -1862205439
            1073741889 536870912 170 1578631168</internalNodes>
          <leafValues>
            -6.8430542945861816e-01 6.7535126209259033e-01</leafValues></_></weakClassifiers></_>
    <!-- stage 34 -->
    <_>
      <maxWeakCount>4</maxWeakCount>
      <stageThreshold>5.1680707931518555e-01</stageThreshold>
      <weakClassifiers>
        <_>
          <internalNodes>
            0 -1 157 45351440 37125750 1677127289 1215315622 2004700228
            669973311 1979547632 672675736</internalNodes>
          <leafValues>
            -3.4246575832366943e-01 8.7666261196136475e-01</leafValues></_>
        <_>
          <internalNodes>
            0 -1 48 -1624683372 1279152126 1312497162 239013503
            259989446 256901115 54515496 1262358149</internalNodes>
          <leafValues>
            -4.7259530425071716e-01 8.3501422405242920e-01</leafValues></_>
        <_>
          <internalNodes>
            0 -1 19 706923192 -227021968 1768718069 1973449684
            1039429237 -1084227714 83719255 1191597621</internalNodes>
          <leafValues>
            -5.6384921073913574e-01 7.8379476070404053e-01</leafValues></_>
        <_>
          <internalNodes>
            0 -1 78 -1172165976 -1349497630 1064974849 170942077
            1543503121 108687349 1999814199 -1498054787</internalNodes>
          <leafValues>
            -6.3102060556411743e-01 7.7360874414443970e-01</leafValues></_></weakClassifiers></_>
    <!-- stage 35 -->
    <_>
      <maxWeakCount>4</maxWeakCount>
      <stageThreshold>4.8888248205184937e-01</stageThreshold>
      <weakClassifiers>
        <_>
          <internalNodes>
            0 -1 140 18878480 403732480 -1073676272 737574832 523631973
            -1212417 -2147481860 754975744</internalNodes>
          <leafValues>
            -3.9393940567970276e-01 8.7050360441207886e-01</leafValues></_>
        <_>
          <internalNodes>
            0 -1 56 237506576 2079178746 -1090715788 418971384 750534772
            -537427979 937198845 536475380</internalNodes>
          <leafValues>
            -4.6538135409355164e-01 8.0435639619827271e-01</leafValues></_>
        <_>
          <internalNodes>
            0 -1 131 286396888 -2147348480 72 268435464 8585352 589952
            1057 134873673</internalNodes>
          <leafValues>
            -6.8218159675598145e-01 6.8784093856811523e-01</leafValues></_>
        <_>
          <internalNodes>
            0 -1 51 -341389671 -470811096 721372036 670253730
            -1426071732 -1073782929 -1695313058 333670239</internalNodes>
          <leafValues>
            -5.0379586219787598e-01 8.6894613504409790e-01</leafValues></_></weakClassifiers></_>
    <!-- stage 36 -->
    <_>
      <maxWeakCount>5</maxWeakCount>
      <stageThreshold>1.3552656769752502e-01</stageThreshold>
      <weakClassifiers>
        <_>
          <internalNodes>
            0 -1 109 1223696400 211877429 -1375980432 -2132529288
            -868860811 -1930035209 485296118 -865796811</internalNodes>
          <leafValues>
            -1.5789473056793213e-01 9.1348600387573242e-01</leafValues></_>
        <_>
          <internalNodes>
            0 -1 41 -656142908 2008588148 1023377406 106987517
            1609858420 1073118590 1073512310 -1607827628</internalNodes>
          <leafValues>
            -4.4080695509910583e-01 8.3744245767593384e-01</leafValues></_>
        <_>
          <internalNodes>
            0 -1 107 109056016 -1075660804 1874689655 1664675709
            -1636004390 -1103101962 803618294 -2005109410</internalNodes>
          <leafValues>
            -5.8356070518493652e-01 7.9292577505111694e-01</leafValues></_>
        <_>
          <internalNodes>
            0 -1 188 16417 269549696 20891 155189264 -2147352447 0
            33622408 1757938180</internalNodes>
          <leafValues>
            -5.5595147609710693e-01 8.9652270078659058e-01</leafValues></_>
        <_>
          <internalNodes>
            0 -1 24 1143809036 -323081300 1995910698 -676382866
            1457654868 1425980791 -134962917 -1460152545</internalNodes>
          <leafValues>
            -5.7412678003311157e-01 8.5945588350296021e-01</leafValues></_></weakClassifiers></_>
    <!-- stage 37 -->
    <_>
      <maxWeakCount>5</maxWeakCount>
      <stageThreshold>1.2661461532115936e-01</stageThreshold>
      <weakClassifiers>
        <_>
          <internalNodes>
            0 -1 179 673841152 103505653 1812430878 711917358 1314362516
            2012700535 35909355 3548269</internalNodes>
          <leafValues>
            -4.8148149251937866e-01 8.5815602540969849e-01</leafValues></_>
        <_>
          <internalNodes>
            0 -1 135 2095980032 2147446591 -1359057280 -1258330177
            -285305652 880279399 817599530 49509460</internalNodes>
          <leafValues>
            -4.0257763862609863e-01 8.5164833068847656e-01</leafValues></_>
        <_>
          <internalNodes>
            0 -1 42 -1862237528 268500996 1 1367408640 536903816 0
            16777354 403406848</internalNodes>
          <leafValues>
            -4.8184615373611450e-01 7.8090834617614746e-01</leafValues></_>
        <_>
          <internalNodes>
            0 -1 165 -633225214 327010807 1996488383 -987857177 39813818
            -805314817 909481886 277003926</internalNodes>
          <leafValues>
            -5.3493088483810425e-01 8.4202706813812256e-01</leafValues></_>
        <_>
          <internalNodes>
            0 -1 55 16653 1501954193 3 18092044 32800 -2013265918 8
            -1995440128</internalNodes>
          <leafValues>
            -5.6641268730163574e-01 7.7569091320037842e-01</leafValues></_></weakClassifiers></_>
    <!-- stage 38 -->
    <_>
      <maxWeakCount>4</maxWeakCount>
      <stageThreshold>4.1995152831077576e-01</stageThreshold>
      <weakClassifiers>
        <_>
          <internalNodes>
            0 -1 184 -486658528 104857518 16448 -486608902 1874820612
            1197993853 2004803536 1173676039</internalNodes>
          <leafValues>
            -3.5897436738014221e-01 8.8564479351043701e-01</leafValues></_>
        <_>
          <internalNodes>
            0 -1 158 37298304 2134799156 993687538 942456758 53642112
            1916534612 1056863408 339571122</internalNodes>
          <leafValues>
            -5.6755399703979492e-01 8.1093084812164307e-01</leafValues></_>
        <_>
          <internalNodes>
            0 -1 90 -1892570862 -1153913168 609930800 738372720
            225312912 -696484644 696124584 1795855664</internalNodes>
          <leafValues>
            -5.5524498224258423e-01 8.1556409597396851e-01</leafValues></_>
        <_>
          <internalNodes>
            0 -1 23 1901076482 402784272 268435456 16842752 0
            -2147450744 -2147450752 1073840778</internalNodes>
          <leafValues>
            -7.1370333433151245e-01 7.2266864776611328e-01</leafValues></_></weakClassifiers></_>
    <!-- stage 39 -->
    <_>
      <maxWeakCount>5</maxWeakCount>
      <stageThreshold>2.1641357243061066e-01</stageThreshold>
      <weakClassifiers>
        <_>
          <internalNodes>
            0 -1 190 95356416 565100478 1040121841 171917247 1572746274
            -32771 171409284 539077595</internalNodes>
          <leafValues>
            -1.3207547366619110e-01 8.9924430847167969e-01</leafValues></_>
        <_>
          <internalNodes>
            0 -1 36 -1389411274 1923541724 1811557950 -1925665554
            41686098 972840828 201082302 20119137</internalNodes>
          <leafValues>
            -3.3833453059196472e-01 8.8926887512207031e-01</leafValues></_>
        <_>
          <internalNodes>
            0 -1 113 -921996852 1513268753 258883406 -816042888
            -2110619512 -159719623 70130193 137890976</internalNodes>
          <leafValues>
            -4.4891747832298279e-01 8.9487063884735107e-01</leafValues></_>
        <_>
          <internalNodes>
            0 -1 167 -75576269 1128038193 -1149241566 1344503655
            -109052151 -1872921250 -1107848192 276363108</internalNodes>
          <leafValues>
            -5.8706325292587280e-01 7.9143971204757690e-01</leafValues></_>
        <_>
          <internalNodes>
            0 -1 25 1131085351 1126344482 -857676191 527580786 694538109
            1145536471 1467282676 -1015431574</internalNodes>
          <leafValues>
            -5.3611892461776733e-01 8.8958442211151123e-01</leafValues></_></weakClassifiers></_>
    <!-- stage 40 -->
    <_>
      <maxWeakCount>4</maxWeakCount>
      <stageThreshold>6.0091763734817505e-01</stageThreshold>
      <weakClassifiers>
        <_>
          <internalNodes>
            0 -1 152 342163460 1181466237 -1560613188 7667447 1163726348
            70680477 553003008 74720887</internalNodes>
          <leafValues>
            -3.4883719682693481e-01 8.9680588245391846e-01</leafValues></_>
        <_>
          <internalNodes>
            0 -1 147 1124243672 1046749109 1068001376 708837039
            653078170 727154676 188730930 590528353</internalNodes>
          <leafValues>
            -4.1750359535217285e-01 8.8814765214920044e-01</leafValues></_>
        <_>
          <internalNodes>
            0 -1 161 1879114880 1879080985 16793604 1073774592 49280
            1216348288 2048 737304</internalNodes>
          <leafValues>
            -6.0987204313278198e-01 8.1514728069305420e-01</leafValues></_>
        <_>
          <internalNodes>
            0 -1 180 1769875177 -1959559528 2080029200 672684913
            502750344 57245473 387773874 100859390</internalNodes>
          <leafValues>
            -5.7416385412216187e-01 8.6338758468627930e-01</leafValues></_></weakClassifiers></_>
    <!-- stage 41 -->
    <_>
      <maxWeakCount>4</maxWeakCount>
      <stageThreshold>5.4945367574691772e-01</stageThreshold>
      <weakClassifiers>
        <_>
          <internalNodes>
            0 -1 45 10493986 -1598460678 1891560948 4110398 934690560
            2013264880 -1104005584 1409307696</internalNodes>
          <leafValues>
            -4.6835443377494812e-01 8.9768576622009277e-01</leafValues></_>
        <_>
          <internalNodes>
            0 -1 94 16432 806354944 136 68 16 8388608 32776 1509949448</internalNodes>
          <leafValues>
            -6.8289148807525635e-01 8.1667900085449219e-01</leafValues></_>
        <_>
          <internalNodes>
            0 -1 103 1116737553 -1073741824 268501264 -2147483647 589856
            1073741824 8320 -889159672</internalNodes>
          <leafValues>
            -5.1471215486526489e-01 9.6375662088394165e-01</leafValues></_>
        <_>
          <internalNodes>
            0 -1 66 839264286 1379155722 723887648 1913261680 406089045
            -864266401 -1484865747 -2005899273</internalNodes>
          <leafValues>
            -6.2909716367721558e-01 8.6002445220947266e-01</leafValues></_></weakClassifiers></_>
    <!-- stage 42 -->
    <_>
      <maxWeakCount>4</maxWeakCount>
      <stageThreshold>4.7027894854545593e-01</stageThreshold>
      <weakClassifiers>
        <_>
          <internalNodes>
            0 -1 148 2055784192 30440564 -36176043 1031028567
            -1627538024 -1241677828 1610503460 98358645</internalNodes>
          <leafValues>
            -2.0661157369613647e-01 9.3068033456802368e-01</leafValues></_>
        <_>
          <internalNodes>
            0 -1 73 552386592 908850722 -331829276 448049072 1157007270
            620036087 -973099913 -499270153</internalNodes>
          <leafValues>
            -5.4636895656585693e-01 8.2140886783599854e-01</leafValues></_>
        <_>
          <internalNodes>
            0 -1 198 -788461556 67112977 16384 1409286145 4227076
            -2147483648 4325384 460801</internalNodes>
          <leafValues>
            -6.0952091217041016e-01 8.4456282854080200e-01</leafValues></_>
        <_>
          <internalNodes>
            0 -1 151 -1666896736 377282420 -805519619 274775780
            -1913222063 2138996605 208980804 11030261</internalNodes>
          <leafValues>
            -6.7228937149047852e-01 7.8731745481491089e-01</leafValues></_></weakClassifiers></_>
    <!-- stage 43 -->
    <_>
      <maxWeakCount>5</maxWeakCount>
      <stageThreshold>1.4809152483940125e-01</stageThreshold>
      <weakClassifiers>
        <_>
          <internalNodes>
            0 -1 5 140903488 139616830 1056862272 1862156002 376722517
            545021821 1606430581 1994024941</internalNodes>
          <leafValues>
            -7.5609755516052246e-01 8.5098952054977417e-01</leafValues></_>
        <_>
          <internalNodes>
            0 -1 21 -2086218042 -429208024 1806577154 1543171808
            1065319500 937754487 938866497 -204229421</internalNodes>
          <leafValues>
            -3.3426904678344727e-01 8.7289947271347046e-01</leafValues></_>
        <_>
          <internalNodes>
            0 -1 195 1869578502 10976106 -268519872 331087871 1606288906
            243269461 2004310896 -134250505</internalNodes>
          <leafValues>
            -5.2341747283935547e-01 7.9634743928909302e-01</leafValues></_>
        <_>
          <internalNodes>
            0 -1 64 1344218243 1057160993 805256705 180256298 235392627
            1153269555 2122210901 -836821006</internalNodes>
          <leafValues>
            -4.7737383842468262e-01 8.9831268787384033e-01</leafValues></_>
        <_>
          <internalNodes>
            0 -1 188 2118007995 1694023676 -272830653 250609406
            1040134020 -1551900801 -989962848 -803187332</internalNodes>
          <leafValues>
            -5.7500618696212769e-01 7.9612874984741211e-01</leafValues></_></weakClassifiers></_>
    <!-- stage 44 -->
    <_>
      <maxWeakCount>5</maxWeakCount>
      <stageThreshold>4.3284982442855835e-01</stageThreshold>
      <weakClassifiers>
        <_>
          <internalNodes>
            0 -1 92 2113739820 -575619076 -1610825747 136342781
            -553746604 1602186710 -1376232343 135437392</internalNodes>
          <leafValues>
            1.4285714365541935e-02 9.1842103004455566e-01</leafValues></_>
        <_>
          <internalNodes>
            0 -1 44 245928512 -1187463349 2062480055 -1182992386
            1844777160 805273463 368334548 49997142</internalNodes>
          <leafValues>
            -3.6371436715126038e-01 8.2480871677398682e-01</leafValues></_>
        <_>
          <internalNodes>
            0 -1 164 1477987344 2054356894 -1224835275 924254010
            1056606280 1995866111 674790655 -1206862443</internalNodes>
          <leafValues>
            -4.8261114954948425e-01 8.1959497928619385e-01</leafValues></_>
        <_>
          <internalNodes>
            0 -1 117 -936720237 810975795 582930993 -246688202
            -1795423837 -1991284190 1197359497 -1974418227</internalNodes>
          <leafValues>
            -3.6459553241729736e-01 9.9070698022842407e-01</leafValues></_>
        <_>
          <internalNodes>
            0 -1 159 -18397346 -1284718601 788524706 293011047
            -2021806968 1333090175 743901131 207059941</internalNodes>
          <leafValues>
            -4.6317330002784729e-01 8.4856063127517700e-01</leafValues></_></weakClassifiers></_>
    <!-- stage 45 -->
    <_>
      <maxWeakCount>4</maxWeakCount>
      <stageThreshold>-3.5586556792259216e-01</stageThreshold>
      <weakClassifiers>
        <_>
          <internalNodes>
            0 -1 72 1117925024 -962031822 884915180 87359333 1156889847
            -1057685644 -2047366665 274921461</internalNodes>
          <leafValues>
            -1.1304347962141037e-01 9.0828025341033936e-01</leafValues></_>
        <_>
          <internalNodes>
            0 -1 133 -1692381168 1568503796 1870116735 1865948924
            -345004 -1342242817 1876602620 486556785</internalNodes>
          <leafValues>
            -4.8031458258628845e-01 8.0950897932052612e-01</leafValues></_>
        <_>
          <internalNodes>
            0 -1 149 1950409152 -2147479040 65792 16385 -1069514663
            36864 537198728 458754</internalNodes>
          <leafValues>
            -4.9727749824523926e-01 8.6389261484146118e-01</leafValues></_>
        <_>
          <internalNodes>
            0 -1 9 -1771115280 -2055252747 246410863 -2144141698
            1149178924 1198817119 257229940 1534057591</internalNodes>
          <leafValues>
            -6.3175368309020996e-01 7.3476999998092651e-01</leafValues></_></weakClassifiers></_>
    <!-- stage 46 -->
    <_>
      <maxWeakCount>4</maxWeakCount>
      <stageThreshold>5.8768886327743530e-01</stageThreshold>
      <weakClassifiers>
        <_>
          <internalNodes>
            0 -1 162 211592976 374610964 -1663770764 1564016500
            -1879257156 -1259470852 100422928 73209204</internalNodes>
          <leafValues>
            -3.4831461310386658e-01 9.0135633945465088e-01</leafValues></_>
        <_>
          <internalNodes>
            0 -1 197 1017479035 246210558 2013183783 519597694
            1207954292 1040154366 1064716250 146431616</internalNodes>
          <leafValues>
            -3.8371890783309937e-01 8.7448966503143311e-01</leafValues></_>
        <_>
          <internalNodes>
            0 -1 186 -1955152991 -1993457910 2128494466 288897593
            721347336 -2072544517 -1796375152 3276180</internalNodes>
          <leafValues>
            -5.7050067186355591e-01 7.9869371652603149e-01</leafValues></_>
        <_>
          <internalNodes>
            0 -1 93 775831165 -1090589706 805236607 -1745031299
            2146791222 -2089451906 436000580 211819677</internalNodes>
          <leafValues>
            -6.1765652894973755e-01 7.8680646419525146e-01</leafValues></_></weakClassifiers></_>
    <!-- stage 47 -->
    <_>
      <maxWeakCount>4</maxWeakCount>
      <stageThreshold>4.0131297707557678e-01</stageThreshold>
      <weakClassifiers>
        <_>
          <internalNodes>
            0 -1 70 19530096 741900144 536870922 -945098892 501104420
            1073610615 1844213108 536875040</internalNodes>
          <leafValues>
            -4.2105263471603394e-01 8.8834953308105469e-01</leafValues></_>
        <_>
          <internalNodes>
            0 -1 171 1148161280 171085690 1686011435 1681129343
            645836549 1465315199 -1837429084 1277927</internalNodes>
          <leafValues>
            -4.7101342678070068e-01 8.6685806512832642e-01</leafValues></_>
        <_>
          <internalNodes>
            0 -1 129 136348864 343878752 -1350627683 -1889715596
            31504440 234765428 707205044 1076956296</internalNodes>
          <leafValues>
            -6.5084898471832275e-01 8.1702268123626709e-01</leafValues></_>
        <_>
          <internalNodes>
            0 -1 110 -1873542652 302055424 -2147467168 1090584576
            142614552 167772160 -2147483634 1074282496</internalNodes>
          <leafValues>
            -7.0304560661315918e-01 7.4894487857818604e-01</leafValues></_></weakClassifiers></_>
    <!-- stage 48 -->
    <_>
      <maxWeakCount>4</maxWeakCount>
      <stageThreshold>4.1286572813987732e-01</stageThreshold>
      <weakClassifiers>
        <_>
          <internalNodes>
            0 -1 67 266304 264193 0 -2147351296 593780 0 5377 65545</internalNodes>
          <leafValues>
            -5.1807230710983276e-01 9.0942472219467163e-01</leafValues></_>
        <_>
          <internalNodes>
            0 -1 74 -80209382 674119470 229115904 339626614 532107214
            795860983 519984730 142561149</internalNodes>
          <leafValues>
            -6.3167941570281982e-01 8.7082767486572266e-01</leafValues></_>
        <_>
          <internalNodes>
            0 -1 22 1116536836 -1091667974 251548790 -40226882
            1287137240 1056243583 619971665 -2110503564</internalNodes>
          <leafValues>
            -5.9241545200347900e-01 9.1550737619400024e-01</leafValues></_>
        <_>
          <internalNodes>
            0 -1 77 16962 1124204564 335609921 1048577 2162688 0 3
            536938496</internalNodes>
          <leafValues>
            -7.7497124671936035e-01 8.0143111944198608e-01</leafValues></_></weakClassifiers></_>
    <!-- stage 49 -->
    <_>
      <maxWeakCount>2</maxWeakCount>
      <stageThreshold>4.1961699724197388e-01</stageThreshold>
      <weakClassifiers>
        <_>
          <internalNodes>
            0 -1 104 -1905508352 1261961440 1249778720 146431184
            505945176 805207676 254184996 4197376</internalNodes>
          <leafValues>
            -4.1666665673255920e-01 9.6153843402862549e-01</leafValues></_>
        <_>
          <internalNodes>
            0 -1 13 16875530 -2138570752 0 32768 520 0 128 1073872898</internalNodes>
          <leafValues>
            -5.4192143678665161e-01 9.6745407581329346e-01</leafValues></_></weakClassifiers></_></stages>
  <features>
    <_>
      <rect>
        0 0 2 4</rect></_>
    <_>
      <rect>
        0 0 4 3</rect></_>
    <_>
      <rect>
        0 0 5 6</rect></_>
    <_>
      <rect>
        0 4 1 1</rect></_>
    <_>
      <rect>
        0 4 4 2</rect></_>
    <_>
      <rect>
        0 4 4 5</rect></_>
    <_>
      <rect>
        0 4 6 4</rect></_>
    <_>
      <rect>
        0 5 3 3</rect></_>
    <_>
      <rect>
        0 6 8 6</rect></_>
    <_>
      <rect>
        0 10 3 3</rect></_>
    <_>
      <rect>
        0 10 3 4</rect></_>
    <_>
      <rect>
        0 11 4 2</rect></_>
    <_>
      <rect>
        0 11 4 3</rect></_>
    <_>
      <rect>
        0 12 2 2</rect></_>
    <_>
      <rect>
        0 12 2 3</rect></_>
    <_>
      <rect>
        0 12 5 4</rect></_>
    <_>
      <rect>
        0 15 6 3</rect></_>
    <_>
      <rect>
        0 18 5 2</rect></_>
    <_>
      <rect>
        1 0 1 4</rect></_>
    <_>
      <rect>
        1 0 4 2</rect></_>
    <_>
      <rect>
        1 0 5 8</rect></_>
    <_>
      <rect>
        1 4 1 1</rect></_>
    <_>
      <rect>
        1 4 2 5</rect></_>
    <_>
      <rect>
        1 4 5 4</rect></_>
    <_>
      <rect>
        1 5 2 3</rect></_>
    <_>
      <rect>
        1 5 3 2</rect></_>
    <_>
      <rect>
        1 8 6 3</rect></_>
    <_>
      <rect>
        1 9 4 5</rect></_>
    <_>
      <rect>
        1 12 7 4</rect></_>
    <_>
      <rect>
        1 15 4 2</rect></_>
    <_>
      <rect>
        2 0 5 3</rect></_>
    <_>
      <rect>
        2 3 5 2</rect></_>
    <_>
      <rect>
        2 3 7 3</rect></_>
    <_>
      <rect>
        2 4 7 2</rect></_>
    <_>
      <rect>
        2 5 5 2</rect></_>
    <_>
      <rect>
        2 8 6 3</rect></_>
    <_>
      <rect>
        2 11 2 3</rect></_>
    <_>
      <rect>
        2 11 2 4</rect></_>
    <_>
      <rect>
        2 11 3 2</rect></_>
    <_>
      <rect>
        2 12 2 1</rect></_>
    <_>
      <rect>
        2 12 5 3</rect></_>
    <_>
      <rect>
        2 15 2 3</rect></_>
    <_>
      <rect>
        3 0 1 1</rect></_>
    <_>
      <rect>
        3 0 2 1</rect></_>
    <_>
      <rect>
        3 0 3 1</rect></_>
    <_>
      <rect>
        3 0 5 4</rect></_>
    <_>
      <rect>
        3 0 6 7</rect></_>
    <_>
      <rect>
        3 1 5 2</rect></_>
    <_>
      <rect>
        3 3 6 5</rect></_>
    <_>
      <rect>
        3 3 6 7</rect></_>
    <_>
      <rect>
        3 5 2 3</rect></_>
    <_>
      <rect>
        3 5 5 3</rect></_>
    <_>
      <rect>
        3 10 1 1</rect></_>
    <_>
      <rect>
        3 18 7 2</rect></_>
    <_>
      <rect>
        3 21 2 1</rect></_>
    <_>
      <rect>
        3 21 3 1</rect></_>
    <_>
      <rect>
        4 0 2 1</rect></_>
    <_>
      <rect>
        4 0 3 3</rect></_>
    <_>
      <rect>
        4 1 1 1</rect></_>
    <_>
      <rect>
        4 1 5 1</rect></_>
    <_>
      <rect>
        4 1 5 3</rect></_>
    <_>
      <rect>
        4 2 4 5</rect></_>
    <_>
      <rect>
        4 2 6 3</rect></_>
    <_>
      <rect>
        4 4 4 5</rect></_>
    <_>
      <rect>
        4 9 5 4</rect></_>
    <_>
      <rect>
        4 13 6 3</rect></_>
    <_>
      <rect>
        4 15 3 2</rect></_>
    <_>
      <rect>
        4 15 5 3</rect></_>
    <_>
      <rect>
        4 17 6 2</rect></_>
    <_>
      <rect>
        4 18 3 2</rect></_>
    <_>
      <rect>
        4 21 1 1</rect></_>
    <_>
      <rect>
        5 0 2 1</rect></_>
    <_>
      <rect>
        5 4 3 2</rect></_>
    <_>
      <rect>
        5 4 4 2</rect></_>
    <_>
      <rect>
        5 5 4 4</rect></_>
    <_>
      <rect>
        5 7 2 2</rect></_>
    <_>
      <rect>
        5 7 5 5</rect></_>
    <_>
      <rect>
        5 13 5 3</rect></_>
    <_>
      <rect>
        5 16 3 2</rect></_>
    <_>
      <rect>
        5 20 5 1</rect></_>
    <_>
      <rect>
        6 0 1 1</rect></_>
    <_>
      <rect>
        6 4 4 2</rect></_>
    <_>
      <rect>
        6 4 5 2</rect></_>
    <_>
      <rect>
        6 4 5 6</rect></_>
    <_>
      <rect>
        6 5 4 4</rect></_>
    <_>
      <rect>
        6 7 6 3</rect></_>
    <_>
      <rect>
        6 8 3 3</rect></_>
    <_>
      <rect>
        6 9 5 4</rect></_>
    <_>
      <rect>
        6 10 2 2</rect></_>
    <_>
      <rect>
        6 10 3 4</rect></_>
    <_>
      <rect>
        6 12 2 2</rect></_>
    <_>
      <rect>
        6 17 4 2</rect></_>
    <_>
      <rect>
        6 18 3 2</rect></_>
    <_>
      <rect>
        6 21 2 1</rect></_>
    <_>
      <rect>
        7 0 2 1</rect></_>
    <_>
      <rect>
        7 0 4 7</rect></_>
    <_>
      <rect>
        7 1 5 1</rect></_>
    <_>
      <rect>
        7 2 3 3</rect></_>
    <_>
      <rect>
        7 2 4 3</rect></_>
    <_>
      <rect>
        7 2 5 3</rect></_>
    <_>
      <rect>
        7 4 4 2</rect></_>
    <_>
      <rect>
        7 4 5 2</rect></_>
    <_>
      <rect>
        7 4 5 3</rect></_>
    <_>
      <rect>
        7 6 1 1</rect></_>
    <_>
      <rect>
        7 13 2 2</rect></_>
    <_>
      <rect>
        7 13 3 2</rect></_>
    <_>
      <rect>
        7 14 5 3</rect></_>
    <_>
      <rect>
        8 0 2 1</rect></_>
    <_>
      <rect>
        8 2 4 3</rect></_>
    <_>
      <rect>
        8 4 2 2</rect></_>
    <_>
      <rect>
        8 4 3 1</rect></_>
    <_>
      <rect>
        8 5 2 2</rect></_>
    <_>
      <rect>
        8 6 4 4</rect></_>
    <_>
      <rect>
        8 13 3 2</rect></_>
    <_>
      <rect>
        8 13 4 3</rect></_>
    <_>
      <rect>
        8 14 1 1</rect></_>
    <_>
      <rect>
        8 14 2 1</rect></_>
    <_>
      <rect>
        8 14 3 1</rect></_>
    <_>
      <rect>
        8 15 2 3</rect></_>
    <_>
      <rect>
        9 0 1 1</rect></_>
    <_>
      <rect>
        9 0 2 1</rect></_>
    <_>
      <rect>
        9 0 3 1</rect></_>
    <_>
      <rect>
        9 4 4 4</rect></_>
    <_>
      <rect>
        9 5 2 3</rect></_>
    <_>
      <rect>
        9 6 1 2</rect></_>
    <_>
      <rect>
        9 6 2 2</rect></_>
    <_>
      <rect>
        9 8 5 4</rect></_>
    <_>
      <rect>
        9 9 2 1</rect></_>
    <_>
      <rect>
        9 12 4 3</rect></_>
    <_>
      <rect>
        9 13 2 2</rect></_>
    <_>
      <rect>
        9 15 2 3</rect></_>
    <_>
      <rect>
        9 15 3 3</rect></_>
    <_>
      <rect>
        10 0 2 1</rect></_>
    <_>
      <rect>
        10 1 1 1</rect></_>
    <_>
      <rect>
        10 6 2 2</rect></_>
    <_>
      <rect>
        10 6 3 2</rect></_>
    <_>
      <rect>
        10 9 4 5</rect></_>
    <_>
      <rect>
        10 13 3 2</rect></_>
    <_>
      <rect>
        10 14 2 2</rect></_>
    <_>
      <rect>
        10 18 2 2</rect></_>
    <_>
      <rect>
        11 0 1 1</rect></_>
    <_>
      <rect>
        11 0 2 1</rect></_>
    <_>
      <rect>
        11 0 3 1</rect></_>
    <_>
      <rect>
        11 0 4 1</rect></_>
    <_>
      <rect>
        11 1 3 7</rect></_>
    <_>
      <rect>
        11 4 1 2</rect></_>
    <_>
      <rect>
        11 4 2 2</rect></_>
    <_>
      <rect>
        11 6 3 4</rect></_>
    <_>
      <rect>
        11 12 4 4</rect></_>
    <_>
      <rect>
        11 13 2 2</rect></_>
    <_>
      <rect>
        11 19 1 1</rect></_>
    <_>
      <rect>
        12 5 2 2</rect></_>
    <_>
      <rect>
        12 5 3 2</rect></_>
    <_>
      <rect>
        12 9 4 5</rect></_>
    <_>
      <rect>
        12 12 3 2</rect></_>
    <_>
      <rect>
        12 12 4 4</rect></_>
    <_>
      <rect>
        12 14 2 1</rect></_>
    <_>
      <rect>
        13 0 3 1</rect></_>
    <_>
      <rect>
        13 5 3 4</rect></_>
    <_>
      <rect>
        13 6 3 2</rect></_>
    <_>
      <rect>
        13 8 2 2</rect></_>
    <_>
      <rect>
        13 11 3 2</rect></_>
    <_>
      <rect>
        13 12 3 4</rect></_>
    <_>
      <rect>
        14 0 3 6</rect></_>
    <_>
      <rect>
        14 1 2 1</rect></_>
    <_>
      <rect>
        14 1 3 3</rect></_>
    <_>
      <rect>
        14 10 3 3</rect></_>
    <_>
      <rect>
        14 12 3 2</rect></_>
    <_>
      <rect>
        14 21 2 1</rect></_>
    <_>
      <rect>
        15 0 1 1</rect></_>
    <_>
      <rect>
        15 0 2 3</rect></_>
    <_>
      <rect>
        15 3 3 3</rect></_>
    <_>
      <rect>
        15 4 2 4</rect></_>
    <_>
      <rect>
        15 6 3 6</rect></_>
    <_>
      <rect>
        15 7 3 2</rect></_>
    <_>
      <rect>
        15 7 3 4</rect></_>
    <_>
      <rect>
        15 9 3 4</rect></_>
    <_>
      <rect>
        15 10 3 2</rect></_>
    <_>
      <rect>
        15 12 3 2</rect></_>
    <_>
      <rect>
        16 1 2 4</rect></_>
    <_>
      <rect>
        16 12 2 2</rect></_>
    <_>
      <rect>
        16 17 2 2</rect></_>
    <_>
      <rect>
        17 2 2 1</rect></_>
    <_>
      <rect>
        17 6 2 2</rect></_>
    <_>
      <rect>
        17 10 2 1</rect></_>
    <_>
      <rect>
        17 11 2 2</rect></_>
    <_>
      <rect>
        17 12 2 2</rect></_>
    <_>
      <rect>
        17 17 2 2</rect></_>
    <_>
      <rect>
        17 21 2 1</rect></_>
    <_>
      <rect>
        18 1 1 1</rect></_>
    <_>
      <rect>
        18 1 2 4</rect></_>
    <_>
      <rect>
        18 2 2 1</rect></_>
    <_>
      <rect>
        18 3 2 1</rect></_>
    <_>
      <rect>
        18 4 2 1</rect></_>
    <_>
      <rect>
        18 4 2 2</rect></_>
    <_>
      <rect>
        18 8 2 2</rect></_>
    <_>
      <rect>
        18 14 2 2</rect></_>
    <_>
      <rect>
        18 21 1 1</rect></_>
    <_>
      <rect>
        20 2 1 1</rect></_></features></cascade>
</opencv_storage>
