<?xml version="1.0"?>
<opencv_storage>
<stage26>
  <maxWeakCount>5</maxWeakCount>
  <stageThreshold>3.9182871580123901e-02</stageThreshold>
  <weakClassifiers>
    <_>
      <internalNodes>
        0 -1 6195 -2064382976 -1267372431 -285282556 409270132
        1635540052 771194741 -285988492 1618003829</internalNodes>
      <leafValues>
        -3.6111110448837280e-01 8.7681162357330322e-01</leafValues></_>
    <_>
      <internalNodes>
        0 -1 7544 -482351023 174767910 2134867232 674266935 226471842
        -1904836610 368407925 -579379718</internalNodes>
      <leafValues>
        -2.5372055172920227e-01 9.0274655818939209e-01</leafValues></_>
    <_>
      <internalNodes>
        0 -1 3508 -1052712766 12587040 -2147385276 -401485824 8915072
        1216348160 -1073731568 419975232</internalNodes>
      <leafValues>
        -5.5408632755279541e-01 7.2971963882446289e-01</leafValues></_>
    <_>
      <internalNodes>
        0 -1 8041 -1694784705 775650874 -1358955002 -2106671313
        -679490046 -998342877 -352411858 -1412137348</internalNodes>
      <leafValues>
        -5.5390137434005737e-01 8.0372917652130127e-01</leafValues></_>
    <_>
      <internalNodes>
        0 -1 5875 -1073512359 -2147381245 285261849 33554433 1075839177
        277118976 1074331912 38404161</internalNodes>
      <leafValues>
        -6.3238757848739624e-01 7.5634497404098511e-01</leafValues></_></weakClassifiers></stage26>
</opencv_storage>
