<?xml version="1.0"?>
<opencv_storage>
<stage22>
  <maxWeakCount>4</maxWeakCount>
  <stageThreshold>-1.3153253495693207e-01</stageThreshold>
  <weakClassifiers>
    <_>
      <internalNodes>
        0 -1 7909 792145410 7011874 716136050 540769778 268373504
        1832091511 -302020960 -2009692314</internalNodes>
      <leafValues>
        -3.1250000000000000e-02 9.1191709041595459e-01</leafValues></_>
    <_>
      <internalNodes>
        0 -1 507 -810597131 255847669 -1360220305 242282213 89984124
        -1887601036 71714295 3469183</internalNodes>
      <leafValues>
        -3.7347847223281860e-01 8.1718361377716064e-01</leafValues></_>
    <_>
      <internalNodes>
        0 -1 8020 -907804624 1005010811 -83984777 1357537261 1006110380
        -1073774594 -1963671553 -1476215183</internalNodes>
      <leafValues>
        -4.8101940751075745e-01 8.2612961530685425e-01</leafValues></_>
    <_>
      <internalNodes>
        0 -1 8162 -1950374901 32124727 2076142928 83034024 1333729032
        -1904443529 -1521109344 -2142612166</internalNodes>
      <leafValues>
        -5.5293369293212891e-01 7.8309190273284912e-01</leafValues></_></weakClassifiers></stage22>
</opencv_storage>
