<?xml version="1.0"?>
<opencv_storage>
<stage30>
  <maxWeakCount>5</maxWeakCount>
  <stageThreshold>3.9351356029510498e-01</stageThreshold>
  <weakClassifiers>
    <_>
      <internalNodes>
        0 -1 5260 69207040 606633812 -1342637135 994639741 1602049876
        1023369173 2121564021 1348757492</internalNodes>
      <leafValues>
        -3.8461539149284363e-01 8.6826348304748535e-01</leafValues></_>
    <_>
      <internalNodes>
        0 -1 7358 2121547296 1123761854 1073741172 1399373500
        -1778483996 892665339 -411230625 -1936714224</internalNodes>
      <leafValues>
        -2.9242774844169617e-01 8.5569894313812256e-01</leafValues></_>
    <_>
      <internalNodes>
        0 -1 4319 792620733 -5130 805203967 -1694699652 1878517564
        -1032487170 436000205 -989651780</internalNodes>
      <leafValues>
        -3.7580797076225281e-01 9.4199496507644653e-01</leafValues></_>
    <_>
      <internalNodes>
        0 -1 2746 -781756280 -360742642 1363111217 624740907 -2084862552
        1874777754 -1590771494 136531217</internalNodes>
      <leafValues>
        -4.5661047101020813e-01 8.0860006809234619e-01</leafValues></_>
    <_>
      <internalNodes>
        0 -1 4701 -262480300 -1682066824 795766566 1584828414
        -1838636115 -1199620167 122565863 804355124</internalNodes>
      <leafValues>
        -4.9803042411804199e-01 8.2233256101608276e-01</leafValues></_></weakClassifiers></stage30>
</opencv_storage>
