<?xml version="1.0"?>
<opencv_storage>
<stage44>
  <maxWeakCount>5</maxWeakCount>
  <stageThreshold>4.3284982442855835e-01</stageThreshold>
  <weakClassifiers>
    <_>
      <internalNodes>
        0 -1 4299 2113739820 -575619076 -1610825747 136342781 -553746604
        1602186710 -1376232343 135437392</internalNodes>
      <leafValues>
        1.4285714365541935e-02 9.1842103004455566e-01</leafValues></_>
    <_>
      <internalNodes>
        0 -1 2040 245928512 -1187463349 2062480055 -1182992386
        1844777160 805273463 368334548 49997142</internalNodes>
      <leafValues>
        -3.6371436715126038e-01 8.2480871677398682e-01</leafValues></_>
    <_>
      <internalNodes>
        0 -1 7115 1477987344 2054356894 -1224835275 924254010 1056606280
        1995866111 674790655 -1206862443</internalNodes>
      <leafValues>
        -4.8261114954948425e-01 8.1959497928619385e-01</leafValues></_>
    <_>
      <internalNodes>
        0 -1 5175 -936720237 810975795 582930993 -246688202 -1795423837
        -1991284190 1197359497 -1974418227</internalNodes>
      <leafValues>
        -3.6459553241729736e-01 9.9070698022842407e-01</leafValues></_>
    <_>
      <internalNodes>
        0 -1 6944 -18397346 -1284718601 788524706 293011047 -2021806968
        1333090175 743901131 207059941</internalNodes>
      <leafValues>
        -4.6317330002784729e-01 8.4856063127517700e-01</leafValues></_></weakClassifiers></stage44>
</opencv_storage>
