<?xml version="1.0"?>
<opencv_storage>
<stage34>
  <maxWeakCount>4</maxWeakCount>
  <stageThreshold>5.1680707931518555e-01</stageThreshold>
  <weakClassifiers>
    <_>
      <internalNodes>
        0 -1 6824 45351440 37125750 1677127289 1215315622 2004700228
        669973311 1979547632 672675736</internalNodes>
      <leafValues>
        -3.4246575832366943e-01 8.7666261196136475e-01</leafValues></_>
    <_>
      <internalNodes>
        0 -1 2217 -1624683372 1279152126 1312497162 239013503 259989446
        256901115 54515496 1262358149</internalNodes>
      <leafValues>
        -4.7259530425071716e-01 8.3501422405242920e-01</leafValues></_>
    <_>
      <internalNodes>
        0 -1 761 706923192 -227021968 1768718069 1973449684 1039429237
        -1084227714 83719255 1191597621</internalNodes>
      <leafValues>
        -5.6384921073913574e-01 7.8379476070404053e-01</leafValues></_>
    <_>
      <internalNodes>
        0 -1 3723 -1172165976 -1349497630 1064974849 170942077
        1543503121 108687349 1999814199 -1498054787</internalNodes>
      <leafValues>
        -6.3102060556411743e-01 7.7360874414443970e-01</leafValues></_></weakClassifiers></stage34>
</opencv_storage>
