<?xml version="1.0"?>
<opencv_storage>
<stage40>
  <maxWeakCount>4</maxWeakCount>
  <stageThreshold>6.0091763734817505e-01</stageThreshold>
  <weakClassifiers>
    <_>
      <internalNodes>
        0 -1 6593 342163460 1181466237 -1560613188 7667447 1163726348
        70680477 553003008 74720887</internalNodes>
      <leafValues>
        -3.4883719682693481e-01 8.9680588245391846e-01</leafValues></_>
    <_>
      <internalNodes>
        0 -1 6251 1124243672 1046749109 1068001376 708837039 653078170
        727154676 188730930 590528353</internalNodes>
      <leafValues>
        -4.1750359535217285e-01 8.8814765214920044e-01</leafValues></_>
    <_>
      <internalNodes>
        0 -1 7015 1879114880 1879080985 16793604 1073774592 49280
        1216348288 2048 737304</internalNodes>
      <leafValues>
        -6.0987204313278198e-01 8.1514728069305420e-01</leafValues></_>
    <_>
      <internalNodes>
        0 -1 7781 1769875177 -1959559528 2080029200 672684913 502750344
        57245473 387773874 100859390</internalNodes>
      <leafValues>
        -5.7416385412216187e-01 8.6338758468627930e-01</leafValues></_></weakClassifiers></stage40>
</opencv_storage>
