<?xml version="1.0"?>
<opencv_storage>
<stage10>
  <maxWeakCount>4</maxWeakCount>
  <stageThreshold>5.4284185171127319e-01</stageThreshold>
  <weakClassifiers>
    <_>
      <internalNodes>
        0 -1 579 -291320004 1546579948 -1092157702 -2109669396
        1143233612 -1079582754 2103869439 -469434377</internalNodes>
      <leafValues>
        -1.1811023950576782e-01 9.2496764659881592e-01</leafValues></_>
    <_>
      <internalNodes>
        0 -1 6729 1983844384 638135061 1465557520 170884735 -1076385397
        587079424 -680036864 376655666</internalNodes>
      <leafValues>
        -5.3847187757492065e-01 7.8258246183395386e-01</leafValues></_>
    <_>
      <internalNodes>
        0 -1 5427 -419455839 -1091125385 -1161888135 -1435599516
        -1359078025 1878982527 1589274230 -1573903311</internalNodes>
      <leafValues>
        -4.9392616748809814e-01 8.6668580770492554e-01</leafValues></_>
    <_>
      <internalNodes>
        0 -1 4096 -732949816 159383553 -2147477232 553648128 272630403
        1744830464 1887438913 843073066</internalNodes>
      <leafValues>
        -6.7078214883804321e-01 7.1283644437789917e-01</leafValues></_></weakClassifiers></stage10>
</opencv_storage>
