<?xml version="1.0"?>
<opencv_storage>
<stage16>
  <maxWeakCount>4</maxWeakCount>
  <stageThreshold>5.3288161754608154e-01</stageThreshold>
  <weakClassifiers>
    <_>
      <internalNodes>
        0 -1 375 745818624 81852088 1861663076 1115619319 928863828
        1971256789 1073708386 1048575991</internalNodes>
      <leafValues>
        -5.4285717010498047e-01 8.8915663957595825e-01</leafValues></_>
    <_>
      <internalNodes>
        0 -1 7360 750256400 -1159340291 2147442543 -1371750408
        1069002616 -37891 117211134 -1483206729</internalNodes>
      <leafValues>
        -3.9863196015357971e-01 9.0398168563842773e-01</leafValues></_>
    <_>
      <internalNodes>
        0 -1 6735 487071280 5666708 1073610741 2051833593 -1073922062
        1173159925 -592492 -2139348995</internalNodes>
      <leafValues>
        -5.9464055299758911e-01 8.5009568929672241e-01</leafValues></_>
    <_>
      <internalNodes>
        0 -1 1414 40763983 1316946078 1035683263 79561898 1061107624
        -1086374425 791096876 453543145</internalNodes>
      <leafValues>
        -6.6561609506607056e-01 8.5917973518371582e-01</leafValues></_></weakClassifiers></stage16>
</opencv_storage>
