<?xml version="1.0"?>
<opencv_storage>
<stage7>
  <maxWeakCount>4</maxWeakCount>
  <stageThreshold>4.7071275115013123e-01</stageThreshold>
  <weakClassifiers>
    <_>
      <internalNodes>
        0 -1 3189 -906305808 -2140733458 -22354752 -387776771 -109807760
        1333264254 -713263279 1978989924</internalNodes>
      <leafValues>
        -3.9024388790130615e-01 8.9486551284790039e-01</leafValues></_>
    <_>
      <internalNodes>
        0 -1 4494 -1060715328 -1839141003 -190425401 -798493834
        2088142089 82278389 893288426 -764283577</internalNodes>
      <leafValues>
        -3.4469199180603027e-01 9.1663873195648193e-01</leafValues></_>
    <_>
      <internalNodes>
        0 -1 7579 -1067136880 17827849 1073745922 470288409 1610711041
        134217728 -2130018302 377107</internalNodes>
      <leafValues>
        -7.0240110158920288e-01 7.3399591445922852e-01</leafValues></_>
    <_>
      <internalNodes>
        0 -1 3228 -1440742320 1807646268 -1090768962 938770431 116789588
        -1375764619 1471968638 -190726</internalNodes>
      <leafValues>
        -6.3839042186737061e-01 7.8473848104476929e-01</leafValues></_></weakClassifiers></stage7>
</opencv_storage>
