<?xml version="1.0"?>
<opencv_storage>
<stage4>
  <maxWeakCount>4</maxWeakCount>
  <stageThreshold>4.8508238792419434e-01</stageThreshold>
  <weakClassifiers>
    <_>
      <internalNodes>
        0 -1 5649 959975024 1067989756 -196752 -1892123528 1054629752
        -4263948 2137800700 -1674521264</internalNodes>
      <leafValues>
        -4.0909090638160706e-01 9.0640395879745483e-01</leafValues></_>
    <_>
      <internalNodes>
        0 -1 2686 3276962 448251120 1605242861 91423973 792637101 -515
        669781948 220923045</internalNodes>
      <leafValues>
        -5.7815754413604736e-01 8.3796489238739014e-01</leafValues></_>
    <_>
      <internalNodes>
        0 -1 1849 220335311 -1910276178 805224231 1042870142 342363500
        -1359183884 209505694 -1942684451</internalNodes>
      <leafValues>
        -5.8140343427658081e-01 8.1184387207031250e-01</leafValues></_>
    <_>
      <internalNodes>
        0 -1 6428 1262001206 -1178763300 -1090588707 1043398652
        -419799402 -42074114 536223613 -601864976</internalNodes>
      <leafValues>
        -6.5500783920288086e-01 8.0703639984130859e-01</leafValues></_></weakClassifiers></stage4>
</opencv_storage>
