<?xml version="1.0"?>
<opencv_storage>
<stage16>
  <maxWeakCount>14</maxWeakCount>
  <stageThreshold>-5.1009851694107056e-01</stageThreshold>
  <weakClassifiers>
    <_>
      <internalNodes>
        0 -1 98190 9.4729252159595490e-03</internalNodes>
      <leafValues>
        -2.1299639344215393e-01 4.7967478632926941e-01</leafValues></_>
    <_>
      <internalNodes>
        0 -1 102706 -3.3156762947328389e-04</internalNodes>
      <leafValues>
        3.9342010021209717e-01 -2.3228867352008820e-01</leafValues></_>
    <_>
      <internalNodes>
        0 -1 57513 4.3737259693443775e-03</internalNodes>
      <leafValues>
        1.4283888041973114e-01 -6.2810498476028442e-01</leafValues></_>
    <_>
      <internalNodes>
        0 -1 69286 -5.8852718211710453e-04</internalNodes>
      <leafValues>
        4.0999114513397217e-01 -2.0074330270290375e-01</leafValues></_>
    <_>
      <internalNodes>
        0 -1 49802 -1.3447027653455734e-02</internalNodes>
      <leafValues>
        6.4506584405899048e-01 -1.6263602674007416e-01</leafValues></_>
    <_>
      <internalNodes>
        0 -1 141699 -4.0967566892504692e-03</internalNodes>
      <leafValues>
        4.4308540225028992e-01 -2.0824010670185089e-01</leafValues></_>
    <_>
      <internalNodes>
        0 -1 154602 -2.7467345818877220e-02</internalNodes>
      <leafValues>
        7.9498714208602905e-01 -1.2281686067581177e-01</leafValues></_>
    <_>
      <internalNodes>
        0 -1 65195 8.7712064385414124e-02</internalNodes>
      <leafValues>
        -8.5798621177673340e-02 7.0799106359481812e-01</leafValues></_>
    <_>
      <internalNodes>
        0 -1 26533 6.2542748637497425e-03</internalNodes>
      <leafValues>
        -2.1155692636966705e-01 4.3454784154891968e-01</leafValues></_>
    <_>
      <internalNodes>
        0 -1 69568 -1.9138248171657324e-03</internalNodes>
      <leafValues>
        -5.8604186773300171e-01 1.9059330224990845e-01</leafValues></_>
    <_>
      <internalNodes>
        0 -1 12265 9.0323342010378838e-04</internalNodes>
      <leafValues>
        2.4225562810897827e-01 -4.1534906625747681e-01</leafValues></_>
    <_>
      <internalNodes>
        0 -1 147727 1.3432332780212164e-03</internalNodes>
      <leafValues>
        -1.2961284816265106e-01 6.6215348243713379e-01</leafValues></_>
    <_>
      <internalNodes>
        0 -1 42693 -7.6502664014697075e-03</internalNodes>
      <leafValues>
        -5.8095282316207886e-01 1.7213241755962372e-01</leafValues></_>
    <_>
      <internalNodes>
        0 -1 92671 -4.1959746740758419e-03</internalNodes>
      <leafValues>
        4.1053071618080139e-01 -2.7327162027359009e-01</leafValues></_></weakClassifiers></stage16>
</opencv_storage>
