<?xml version="1.0"?>
<opencv_storage>
<stage23>
  <maxWeakCount>17</maxWeakCount>
  <stageThreshold>-8.4801858663558960e-01</stageThreshold>
  <weakClassifiers>
    <_>
      <internalNodes>
        0 -1 14015 -3.5050831735134125e-02</internalNodes>
      <leafValues>
        6.0655736923217773e-01 -1.0914454609155655e-01</leafValues></_>
    <_>
      <internalNodes>
        0 -1 47015 -1.4238369464874268e-01</internalNodes>
      <leafValues>
        4.2492669820785522e-01 -1.5807142853736877e-01</leafValues></_>
    <_>
      <internalNodes>
        0 -1 89988 2.7386997826397419e-03</internalNodes>
      <leafValues>
        -1.7660626769065857e-01 4.6859869360923767e-01</leafValues></_>
    <_>
      <internalNodes>
        0 -1 114427 2.5635529309511185e-03</internalNodes>
      <leafValues>
        1.0518842935562134e-01 -8.3520728349685669e-01</leafValues></_>
    <_>
      <internalNodes>
        0 -1 85364 6.0106706805527210e-03</internalNodes>
      <leafValues>
        -1.8716058135032654e-01 4.1628265380859375e-01</leafValues></_>
    <_>
      <internalNodes>
        0 -1 62050 1.2995006144046783e-01</internalNodes>
      <leafValues>
        -3.0647543072700500e-01 3.0786231160163879e-01</leafValues></_>
    <_>
      <internalNodes>
        0 -1 147579 -6.2828237423673272e-04</internalNodes>
      <leafValues>
        1.9211253523826599e-01 -3.8180127739906311e-01</leafValues></_>
    <_>
      <internalNodes>
        0 -1 133569 -4.7858874313533306e-03</internalNodes>
      <leafValues>
        -2.4160428345203400e-01 3.3595547080039978e-01</leafValues></_>
    <_>
      <internalNodes>
        0 -1 31113 1.1841404484584928e-03</internalNodes>
      <leafValues>
        -2.3094330728054047e-01 3.6449217796325684e-01</leafValues></_>
    <_>
      <internalNodes>
        0 -1 155094 7.6375273056328297e-04</internalNodes>
      <leafValues>
        1.2278454750776291e-01 -6.7859131097793579e-01</leafValues></_>
    <_>
      <internalNodes>
        0 -1 158728 9.3596279621124268e-03</internalNodes>
      <leafValues>
        -1.1607835441827774e-01 7.4995100498199463e-01</leafValues></_>
    <_>
      <internalNodes>
        0 -1 161379 -6.3979271799325943e-03</internalNodes>
      <leafValues>
        4.4387835264205933e-01 -1.6267082095146179e-01</leafValues></_>
    <_>
      <internalNodes>
        0 -1 60314 1.9838631153106689e-02</internalNodes>
      <leafValues>
        -1.2719981372356415e-01 6.5405774116516113e-01</leafValues></_>
    <_>
      <internalNodes>
        0 -1 106113 3.9576245471835136e-03</internalNodes>
      <leafValues>
        1.3374763727188110e-01 -7.5651103258132935e-01</leafValues></_>
    <_>
      <internalNodes>
        0 -1 114222 4.1426625102758408e-03</internalNodes>
      <leafValues>
        -1.2321849167346954e-01 7.2868955135345459e-01</leafValues></_>
    <_>
      <internalNodes>
        0 -1 39384 1.2652515433728695e-02</internalNodes>
      <leafValues>
        -1.8316090106964111e-01 4.5267841219902039e-01</leafValues></_>
    <_>
      <internalNodes>
        0 -1 63454 -2.6615120470523834e-02</internalNodes>
      <leafValues>
        -8.2192271947860718e-01 1.0614472627639771e-01</leafValues></_></weakClassifiers></stage23>
</opencv_storage>
