<?xml version="1.0"?>
<opencv_storage>
<stage1>
  <maxWeakCount>6</maxWeakCount>
  <stageThreshold>-9.4350135326385498e-01</stageThreshold>
  <weakClassifiers>
    <_>
      <internalNodes>
        0 -1 13371 -7.2500184178352356e-03</internalNodes>
      <leafValues>
        6.7597764730453491e-01 -5.4751133918762207e-01</leafValues></_>
    <_>
      <internalNodes>
        0 -1 60439 -8.3310818299651146e-03</internalNodes>
      <leafValues>
        -6.5617895126342773e-01 4.3137928843498230e-01</leafValues></_>
    <_>
      <internalNodes>
        0 -1 114653 1.8011884531006217e-03</internalNodes>
      <leafValues>
        -3.9966613054275513e-01 7.3425287008285522e-01</leafValues></_>
    <_>
      <internalNodes>
        0 -1 131823 2.3613937664777040e-03</internalNodes>
      <leafValues>
        -4.8024541139602661e-01 4.9224606156349182e-01</leafValues></_>
    <_>
      <internalNodes>
        0 -1 13282 -3.6347992718219757e-03</internalNodes>
      <leafValues>
        5.4252928495407104e-01 -4.3670716881752014e-01</leafValues></_>
    <_>
      <internalNodes>
        0 -1 30224 3.8298717699944973e-03</internalNodes>
      <leafValues>
        -4.8324212431907654e-01 5.3108102083206177e-01</leafValues></_></weakClassifiers></stage1>
</opencv_storage>
