<?xml version="1.0"?>
<opencv_storage>
<stage13>
  <maxWeakCount>18</maxWeakCount>
  <stageThreshold>-1.2532863616943359e+00</stageThreshold>
  <weakClassifiers>
    <_>
      <internalNodes>
        0 -1 61585 -7.6205707155168056e-03</internalNodes>
      <leafValues>
        8.0769228935241699e-01 -1.2068965286016464e-01</leafValues></_>
    <_>
      <internalNodes>
        0 -1 13148 -3.6128677427768707e-02</internalNodes>
      <leafValues>
        4.3912944197654724e-01 -2.3381675779819489e-01</leafValues></_>
    <_>
      <internalNodes>
        0 -1 45648 1.5450455248355865e-02</internalNodes>
      <leafValues>
        -1.6372726857662201e-01 6.5240037441253662e-01</leafValues></_>
    <_>
      <internalNodes>
        0 -1 144934 -3.4099981188774109e-02</internalNodes>
      <leafValues>
        5.5803513526916504e-01 -1.6623079776763916e-01</leafValues></_>
    <_>
      <internalNodes>
        0 -1 49446 -1.4311279170215130e-02</internalNodes>
      <leafValues>
        7.4366551637649536e-01 -1.5614725649356842e-01</leafValues></_>
    <_>
      <internalNodes>
        0 -1 5641 -2.0800018310546875e-01</internalNodes>
      <leafValues>
        5.1588046550750732e-01 -2.0002989470958710e-01</leafValues></_>
    <_>
      <internalNodes>
        0 -1 38384 7.4533829465508461e-03</internalNodes>
      <leafValues>
        -1.5378957986831665e-01 6.2120413780212402e-01</leafValues></_>
    <_>
      <internalNodes>
        0 -1 13953 4.1302163153886795e-03</internalNodes>
      <leafValues>
        -1.7959947884082794e-01 5.3657591342926025e-01</leafValues></_>
    <_>
      <internalNodes>
        0 -1 130529 1.4714168384671211e-02</internalNodes>
      <leafValues>
        -3.7670972943305969e-01 3.0039638280868530e-01</leafValues></_>
    <_>
      <internalNodes>
        0 -1 78707 -3.4957518801093102e-04</internalNodes>
      <leafValues>
        3.9825823903083801e-01 -2.5745075941085815e-01</leafValues></_>
    <_>
      <internalNodes>
        0 -1 45865 1.4272365951910615e-03</internalNodes>
      <leafValues>
        -3.4732475876808167e-01 2.8772273659706116e-01</leafValues></_>
    <_>
      <internalNodes>
        0 -1 140703 8.6451543029397726e-04</internalNodes>
      <leafValues>
        1.6400063037872314e-01 -9.0728276968002319e-01</leafValues></_>
    <_>
      <internalNodes>
        0 -1 98736 -1.4808285050094128e-03</internalNodes>
      <leafValues>
        6.0493868589401245e-01 -2.0471903681755066e-01</leafValues></_>
    <_>
      <internalNodes>
        0 -1 139320 -1.0163930710405111e-04</internalNodes>
      <leafValues>
        3.7772029638290405e-01 -2.8551235795021057e-01</leafValues></_>
    <_>
      <internalNodes>
        0 -1 153139 1.1077000817749649e-04</internalNodes>
      <leafValues>
        -2.5548502802848816e-01 3.8462129235267639e-01</leafValues></_>
    <_>
      <internalNodes>
        0 -1 112039 -9.2899538576602936e-03</internalNodes>
      <leafValues>
        2.6812571287155151e-01 -3.6175978183746338e-01</leafValues></_>
    <_>
      <internalNodes>
        0 -1 40585 -4.1088733822107315e-02</internalNodes>
      <leafValues>
        -7.9778206348419189e-01 1.3539771735668182e-01</leafValues></_>
    <_>
      <internalNodes>
        0 -1 5422 2.1731731249019504e-04</internalNodes>
      <leafValues>
        -3.6138975620269775e-01 2.3465208709239960e-01</leafValues></_></weakClassifiers></stage13>
</opencv_storage>
