<?xml version="1.0"?>
<opencv_storage>
<stage19>
  <maxWeakCount>16</maxWeakCount>
  <stageThreshold>-5.3842675685882568e-01</stageThreshold>
  <weakClassifiers>
    <_>
      <internalNodes>
        0 -1 83097 7.4662831611931324e-03</internalNodes>
      <leafValues>
        -1.5384615957736969e-01 5.4545456171035767e-01</leafValues></_>
    <_>
      <internalNodes>
        0 -1 1213 1.1018166318535805e-02</internalNodes>
      <leafValues>
        -1.8133465945720673e-01 4.6194371581077576e-01</leafValues></_>
    <_>
      <internalNodes>
        0 -1 36156 -2.1673300862312317e-01</internalNodes>
      <leafValues>
        4.7763860225677490e-01 -1.9159182906150818e-01</leafValues></_>
    <_>
      <internalNodes>
        0 -1 70135 -3.4566298127174377e-03</internalNodes>
      <leafValues>
        6.0484117269515991e-01 -1.7039029300212860e-01</leafValues></_>
    <_>
      <internalNodes>
        0 -1 155323 4.7665089368820190e-03</internalNodes>
      <leafValues>
        -1.5733744204044342e-01 4.8275396227836609e-01</leafValues></_>
    <_>
      <internalNodes>
        0 -1 49963 3.4873045980930328e-02</internalNodes>
      <leafValues>
        -1.2313253432512283e-01 7.2380608320236206e-01</leafValues></_>
    <_>
      <internalNodes>
        0 -1 85839 4.2484924197196960e-03</internalNodes>
      <leafValues>
        -1.5697769820690155e-01 5.4901605844497681e-01</leafValues></_>
    <_>
      <internalNodes>
        0 -1 8724 -4.0956162847578526e-03</internalNodes>
      <leafValues>
        -6.7867237329483032e-01 1.7818380892276764e-01</leafValues></_>
    <_>
      <internalNodes>
        0 -1 131740 3.2922364771366119e-03</internalNodes>
      <leafValues>
        -3.6618146300315857e-01 2.3558375239372253e-01</leafValues></_>
    <_>
      <internalNodes>
        0 -1 25893 3.4821080043911934e-03</internalNodes>
      <leafValues>
        -1.5744678676128387e-01 6.3676577806472778e-01</leafValues></_>
    <_>
      <internalNodes>
        0 -1 157540 2.8898584423586726e-04</internalNodes>
      <leafValues>
        2.9769217967987061e-01 -3.2041019201278687e-01</leafValues></_>
    <_>
      <internalNodes>
        0 -1 147873 -2.8167665004730225e-04</internalNodes>
      <leafValues>
        2.5871771574020386e-01 -3.3470356464385986e-01</leafValues></_>
    <_>
      <internalNodes>
        0 -1 151376 6.6416902700439095e-04</internalNodes>
      <leafValues>
        -1.4656306803226471e-01 6.3627701997756958e-01</leafValues></_>
    <_>
      <internalNodes>
        0 -1 121921 1.7274070996791124e-03</internalNodes>
      <leafValues>
        1.8191535770893097e-01 -5.2917921543121338e-01</leafValues></_>
    <_>
      <internalNodes>
        0 -1 156119 -5.1596667617559433e-04</internalNodes>
      <leafValues>
        -6.5529286861419678e-01 1.2321315705776215e-01</leafValues></_>
    <_>
      <internalNodes>
        0 -1 156421 1.3084519014228135e-04</internalNodes>
      <leafValues>
        -2.8250312805175781e-01 3.3598235249519348e-01</leafValues></_></weakClassifiers></stage19>
</opencv_storage>
