<?xml version="1.0"?>
<opencv_storage>
<stage37>
  <maxWeakCount>5</maxWeakCount>
  <stageThreshold>1.2661461532115936e-01</stageThreshold>
  <weakClassifiers>
    <_>
      <internalNodes>
        0 -1 7662 673841152 103505653 1812430878 711917358 1314362516
        2012700535 35909355 3548269</internalNodes>
      <leafValues>
        -4.8148149251937866e-01 8.5815602540969849e-01</leafValues></_>
    <_>
      <internalNodes>
        0 -1 5881 2095980032 2147446591 -1359057280 -1258330177
        -285305652 880279399 817599530 49509460</internalNodes>
      <leafValues>
        -4.0257763862609863e-01 8.5164833068847656e-01</leafValues></_>
    <_>
      <internalNodes>
        0 -1 2024 -1862237528 268500996 1 1367408640 536903816 0
        16777354 403406848</internalNodes>
      <leafValues>
        -4.8184615373611450e-01 7.8090834617614746e-01</leafValues></_>
    <_>
      <internalNodes>
        0 -1 7124 -633225214 327010807 1996488383 -987857177 39813818
        -805314817 909481886 277003926</internalNodes>
      <leafValues>
        -5.3493088483810425e-01 8.4202706813812256e-01</leafValues></_>
    <_>
      <internalNodes>
        0 -1 2663 16653 1501954193 3 18092044 32800 -2013265918 8
        -1995440128</internalNodes>
      <leafValues>
        -5.6641268730163574e-01 7.7569091320037842e-01</leafValues></_></weakClassifiers></stage37>
</opencv_storage>
