<?xml version="1.0"?>
<opencv_storage>
<stage33>
  <maxWeakCount>4</maxWeakCount>
  <stageThreshold>4.4507950544357300e-01</stageThreshold>
  <weakClassifiers>
    <_>
      <internalNodes>
        0 -1 705 -17027540 11468516 -1059062388 639958700 1719627124
        645595004 1727528396 1611724406</internalNodes>
      <leafValues>
        -4.8275861144065857e-01 8.6460804939270020e-01</leafValues></_>
    <_>
      <internalNodes>
        0 -1 2277 12527154 1082746534 -604016798 351245431 -1929488555
        82784255 1207904116 494229367</internalNodes>
      <leafValues>
        -5.3994548320770264e-01 7.1546721458435059e-01</leafValues></_>
    <_>
      <internalNodes>
        0 -1 2109 1596895999 -1505810702 2138975847 1207567380
        -1426086240 1877812279 180235809 1320955159</internalNodes>
      <leafValues>
        -4.5069035887718201e-01 8.9738237857818604e-01</leafValues></_>
    <_>
      <internalNodes>
        0 -1 1771 536904434 17891392 -2147483516 -1862205439 1073741889
        536870912 170 1578631168</internalNodes>
      <leafValues>
        -6.8430542945861816e-01 6.7535126209259033e-01</leafValues></_></weakClassifiers></stage33>
</opencv_storage>
