<?xml version="1.0"?>
<opencv_storage>
<stage46>
  <maxWeakCount>4</maxWeakCount>
  <stageThreshold>5.8768886327743530e-01</stageThreshold>
  <weakClassifiers>
    <_>
      <internalNodes>
        0 -1 7029 211592976 374610964 -1663770764 1564016500 -1879257156
        -1259470852 100422928 73209204</internalNodes>
      <leafValues>
        -3.4831461310386658e-01 9.0135633945465088e-01</leafValues></_>
    <_>
      <internalNodes>
        0 -1 8186 1017479035 246210558 2013183783 519597694 1207954292
        1040154366 1064716250 146431616</internalNodes>
      <leafValues>
        -3.8371890783309937e-01 8.7448966503143311e-01</leafValues></_>
    <_>
      <internalNodes>
        0 -1 7965 -1955152991 -1993457910 2128494466 288897593 721347336
        -2072544517 -1796375152 3276180</internalNodes>
      <leafValues>
        -5.7050067186355591e-01 7.9869371652603149e-01</leafValues></_>
    <_>
      <internalNodes>
        0 -1 4319 775831165 -1090589706 805236607 -1745031299 2146791222
        -2089451906 436000580 211819677</internalNodes>
      <leafValues>
        -6.1765652894973755e-01 7.8680646419525146e-01</leafValues></_></weakClassifiers></stage46>
</opencv_storage>
