<?xml version="1.0"?>
<opencv_storage>
<stage20>
  <maxWeakCount>4</maxWeakCount>
  <stageThreshold>3.2260003685951233e-01</stageThreshold>
  <weakClassifiers>
    <_>
      <internalNodes>
        0 -1 1306 -2113871862 67373060 -2147483520 539110443 645201749
        104234870 1631518583 544241463</internalNodes>
      <leafValues>
        -5.3333336114883423e-01 8.7142854928970337e-01</leafValues></_>
    <_>
      <internalNodes>
        0 -1 3965 -804994944 268435457 1224736768 -2147418112
        -2143256448 -2147344382 67665921 -1878884312</internalNodes>
      <leafValues>
        -5.0477534532546997e-01 8.1650376319885254e-01</leafValues></_>
    <_>
      <internalNodes>
        0 -1 7555 -770322304 134349824 128 1342181888 -2146402304
        41943040 -2004844159 1376323923</internalNodes>
      <leafValues>
        -6.8239885568618774e-01 7.1862179040908813e-01</leafValues></_>
    <_>
      <internalNodes>
        0 -1 8069 1359071232 1572866 -2147483648 4227076 193 0 4224
        -1073569262</internalNodes>
      <leafValues>
        -6.8293344974517822e-01 7.2637611627578735e-01</leafValues></_></weakClassifiers></stage20>
</opencv_storage>
