<?xml version="1.0"?>
<opencv_storage>
<stage19>
  <maxWeakCount>4</maxWeakCount>
  <stageThreshold>-3.9776334166526794e-01</stageThreshold>
  <weakClassifiers>
    <_>
      <internalNodes>
        0 -1 8413 -2062841789 -1073676287 268664968 -2142171134
        -2134830814 -1063124990 -1065287485 -87850621</internalNodes>
      <leafValues>
        -6.6666668653488159e-01 5.0000000000000000e-01</leafValues></_>
    <_>
      <internalNodes>
        0 -1 2744 -652177164 327159840 67371288 -1744762880 -1610612342
        -1181712128 168362020 671139971</internalNodes>
      <leafValues>
        -6.6595095396041870e-01 5.8333438634872437e-01</leafValues></_>
    <_>
      <internalNodes>
        0 -1 1950 1585612403 -1845395273 8413445 1342800002 553697571
        -1988067296 -2125938533 -1249673213</internalNodes>
      <leafValues>
        -6.3157743215560913e-01 6.8289601802825928e-01</leafValues></_>
    <_>
      <internalNodes>
        0 -1 3635 67850912 -133656474 -1944551405 -1970962303
        -2147237760 -2147483496 -1610375024 -893132780</internalNodes>
      <leafValues>
        -8.4952032566070557e-01 5.3027427196502686e-01</leafValues></_></weakClassifiers></stage19>
</opencv_storage>
