<?xml version="1.0"?>
<opencv_storage>
<stage20>
  <maxWeakCount>25</maxWeakCount>
  <stageThreshold>-7.9591977596282959e-01</stageThreshold>
  <weakClassifiers>
    <_>
      <internalNodes>
        0 -1 39456 -1.2606013566255569e-02</internalNodes>
      <leafValues>
        5.0000000000000000e-01 -1.1576354503631592e-01</leafValues></_>
    <_>
      <internalNodes>
        0 -1 60172 -1.5285974368453026e-03</internalNodes>
      <leafValues>
        2.1553990244865417e-01 -2.3472984135150909e-01</leafValues></_>
    <_>
      <internalNodes>
        0 -1 81662 5.6432443670928478e-04</internalNodes>
      <leafValues>
        -2.4523168802261353e-01 2.2274540364742279e-01</leafValues></_>
    <_>
      <internalNodes>
        0 -1 9370 -5.4013049229979515e-03</internalNodes>
      <leafValues>
        -6.5181988477706909e-01 1.1232035607099533e-01</leafValues></_>
    <_>
      <internalNodes>
        0 -1 26887 8.0452044494450092e-04</internalNodes>
      <leafValues>
        -1.1909714341163635e-01 3.6260518431663513e-01</leafValues></_>
    <_>
      <internalNodes>
        0 -1 105673 2.0182244479656219e-03</internalNodes>
      <leafValues>
        -1.1380057781934738e-01 4.7843769192695618e-01</leafValues></_>
    <_>
      <internalNodes>
        0 -1 4081 -1.2122071348130703e-03</internalNodes>
      <leafValues>
        -9.1351360082626343e-01 4.7732021659612656e-02</leafValues></_>
    <_>
      <internalNodes>
        0 -1 155690 -1.0812555439770222e-02</internalNodes>
      <leafValues>
        5.8408528566360474e-01 -6.1705708503723145e-02</leafValues></_>
    <_>
      <internalNodes>
        0 -1 4989 3.0078431591391563e-03</internalNodes>
      <leafValues>
        -9.9399380385875702e-02 6.3116079568862915e-01</leafValues></_>
    <_>
      <internalNodes>
        0 -1 99995 4.0540676563978195e-03</internalNodes>
      <leafValues>
        -2.6208603382110596e-01 1.9723029434680939e-01</leafValues></_>
    <_>
      <internalNodes>
        0 -1 94872 -1.2261071242392063e-02</internalNodes>
      <leafValues>
        4.5125040411949158e-01 -1.0425452142953873e-01</leafValues></_>
    <_>
      <internalNodes>
        0 -1 68523 -1.1054819822311401e-01</internalNodes>
      <leafValues>
        2.9036855697631836e-01 -1.7893683910369873e-01</leafValues></_>
    <_>
      <internalNodes>
        0 -1 132329 3.0379375675693154e-04</internalNodes>
      <leafValues>
        -2.0350593328475952e-01 2.8686758875846863e-01</leafValues></_>
    <_>
      <internalNodes>
        0 -1 60418 4.4043981470167637e-03</internalNodes>
      <leafValues>
        -8.3161145448684692e-02 5.2341681718826294e-01</leafValues></_>
    <_>
      <internalNodes>
        0 -1 54947 2.0154011435806751e-03</internalNodes>
      <leafValues>
        -1.0903401672840118e-01 3.7522375583648682e-01</leafValues></_>
    <_>
      <internalNodes>
        0 -1 147534 3.1577195040881634e-03</internalNodes>
      <leafValues>
        7.0869326591491699e-02 -6.1355113983154297e-01</leafValues></_>
    <_>
      <internalNodes>
        0 -1 13374 5.8493402320891619e-05</internalNodes>
      <leafValues>
        1.5356184542179108e-01 -3.0119177699089050e-01</leafValues></_>
    <_>
      <internalNodes>
        0 -1 150547 9.8768696188926697e-03</internalNodes>
      <leafValues>
        -9.0456038713455200e-02 5.2146780490875244e-01</leafValues></_>
    <_>
      <internalNodes>
        0 -1 8217 6.2010725960135460e-03</internalNodes>
      <leafValues>
        -1.8237686157226562e-01 2.9069286584854126e-01</leafValues></_>
    <_>
      <internalNodes>
        0 -1 98635 -1.1838955804705620e-02</internalNodes>
      <leafValues>
        4.1059142351150513e-01 -1.2972579896450043e-01</leafValues></_>
    <_>
      <internalNodes>
        0 -1 150167 -5.9154951013624668e-03</internalNodes>
      <leafValues>
        2.6308298110961914e-01 -1.9547353684902191e-01</leafValues></_>
    <_>
      <internalNodes>
        0 -1 107233 8.3195883780717850e-03</internalNodes>
      <leafValues>
        -1.9698281586170197e-01 2.5378167629241943e-01</leafValues></_>
    <_>
      <internalNodes>
        0 -1 95531 1.6593930125236511e-01</internalNodes>
      <leafValues>
        -8.6527511477470398e-02 7.1592050790786743e-01</leafValues></_>
    <_>
      <internalNodes>
        0 -1 109971 8.0956537276506424e-03</internalNodes>
      <leafValues>
        7.0115581154823303e-02 -9.7872030735015869e-01</leafValues></_>
    <_>
      <internalNodes>
        0 -1 98750 -6.6456630825996399e-02</internalNodes>
      <leafValues>
        -5.7716429233551025e-01 6.0938816517591476e-02</leafValues></_></weakClassifiers></stage20>
</opencv_storage>
