<?xml version="1.0"?>
<opencv_storage>
<stage12>
  <maxWeakCount>23</maxWeakCount>
  <stageThreshold>-9.9574559926986694e-01</stageThreshold>
  <weakClassifiers>
    <_>
      <internalNodes>
        0 -1 25714 -6.9132838398218155e-03</internalNodes>
      <leafValues>
        1.9277107715606689e-01 -3.8095238804817200e-01</leafValues></_>
    <_>
      <internalNodes>
        0 -1 121666 -2.3402512073516846e-02</internalNodes>
      <leafValues>
        -3.0361127853393555e-01 2.3565432429313660e-01</leafValues></_>
    <_>
      <internalNodes>
        0 -1 117867 -2.8057076269760728e-04</internalNodes>
      <leafValues>
        2.4525716900825500e-01 -3.1108543276786804e-01</leafValues></_>
    <_>
      <internalNodes>
        0 -1 148753 1.6222283244132996e-02</internalNodes>
      <leafValues>
        -1.2133470177650452e-01 7.5066506862640381e-01</leafValues></_>
    <_>
      <internalNodes>
        0 -1 50461 -7.6623782515525818e-03</internalNodes>
      <leafValues>
        6.2179327011108398e-01 -1.2415414303541183e-01</leafValues></_>
    <_>
      <internalNodes>
        0 -1 26140 3.0151931568980217e-02</internalNodes>
      <leafValues>
        -1.5654304623603821e-01 3.8196215033531189e-01</leafValues></_>
    <_>
      <internalNodes>
        0 -1 101536 -1.9056748598814011e-02</internalNodes>
      <leafValues>
        -4.9936982989311218e-01 1.2591472268104553e-01</leafValues></_>
    <_>
      <internalNodes>
        0 -1 136851 -3.5026220139116049e-03</internalNodes>
      <leafValues>
        4.1877001523971558e-01 -1.4179855585098267e-01</leafValues></_>
    <_>
      <internalNodes>
        0 -1 139928 -9.5336958765983582e-02</internalNodes>
      <leafValues>
        -1. 5.7225536555051804e-02</leafValues></_>
    <_>
      <internalNodes>
        0 -1 79060 -2.7160278987139463e-03</internalNodes>
      <leafValues>
        5.5716019868850708e-01 -1.1405659466981888e-01</leafValues></_>
    <_>
      <internalNodes>
        0 -1 157695 -2.3800584021955729e-03</internalNodes>
      <leafValues>
        3.0280545353889465e-01 -1.9585207104682922e-01</leafValues></_>
    <_>
      <internalNodes>
        0 -1 142163 5.7018065126612782e-04</internalNodes>
      <leafValues>
        -1.9928064942359924e-01 3.0503833293914795e-01</leafValues></_>
    <_>
      <internalNodes>
        0 -1 13358 -1.0476257652044296e-02</internalNodes>
      <leafValues>
        4.6824681758880615e-01 -1.3053196668624878e-01</leafValues></_>
    <_>
      <internalNodes>
        0 -1 43481 -1.1722248792648315e-01</internalNodes>
      <leafValues>
        3.9621549844741821e-01 -1.6616469621658325e-01</leafValues></_>
    <_>
      <internalNodes>
        0 -1 158472 1.9577467814087868e-02</internalNodes>
      <leafValues>
        -9.1103278100490570e-02 8.3308076858520508e-01</leafValues></_>
    <_>
      <internalNodes>
        0 -1 3231 1.7032075673341751e-02</internalNodes>
      <leafValues>
        -9.8399683833122253e-02 6.2887680530548096e-01</leafValues></_>
    <_>
      <internalNodes>
        0 -1 71698 1.8849822226911783e-03</internalNodes>
      <leafValues>
        -1.5170142054557800e-01 4.0617963671684265e-01</leafValues></_>
    <_>
      <internalNodes>
        0 -1 49438 6.7799785174429417e-03</internalNodes>
      <leafValues>
        -1.8744637072086334e-01 3.6148035526275635e-01</leafValues></_>
    <_>
      <internalNodes>
        0 -1 114985 -4.4329586671665311e-04</internalNodes>
      <leafValues>
        4.3119421601295471e-01 -1.5773345530033112e-01</leafValues></_>
    <_>
      <internalNodes>
        0 -1 121934 -5.0717042759060860e-03</internalNodes>
      <leafValues>
        -8.1000298261642456e-01 9.2134416103363037e-02</leafValues></_>
    <_>
      <internalNodes>
        0 -1 106633 -9.8426230251789093e-03</internalNodes>
      <leafValues>
        3.5578259825706482e-01 -1.8938346207141876e-01</leafValues></_>
    <_>
      <internalNodes>
        0 -1 158534 3.6014191573485732e-04</internalNodes>
      <leafValues>
        -1.6697736084461212e-01 3.5556462407112122e-01</leafValues></_>
    <_>
      <internalNodes>
        0 -1 68976 1.7663482576608658e-03</internalNodes>
      <leafValues>
        -1.7175342142581940e-01 3.6050319671630859e-01</leafValues></_></weakClassifiers></stage12>
</opencv_storage>
