<?xml version="1.0"?>
<opencv_storage>
<stage14>
  <maxWeakCount>21</maxWeakCount>
  <stageThreshold>-8.9894115924835205e-01</stageThreshold>
  <weakClassifiers>
    <_>
      <internalNodes>
        0 -1 26688 1.2035933323204517e-02</internalNodes>
      <leafValues>
        -2.9004329442977905e-01 2.4907062947750092e-01</leafValues></_>
    <_>
      <internalNodes>
        0 -1 70541 -5.0343852490186691e-02</internalNodes>
      <leafValues>
        4.0374267101287842e-01 -1.7888401448726654e-01</leafValues></_>
    <_>
      <internalNodes>
        0 -1 159503 -2.5340882129967213e-03</internalNodes>
      <leafValues>
        -5.0120162963867188e-01 1.4080348610877991e-01</leafValues></_>
    <_>
      <internalNodes>
        0 -1 12243 2.1500904113054276e-03</internalNodes>
      <leafValues>
        1.0899703204631805e-01 -6.7585164308547974e-01</leafValues></_>
    <_>
      <internalNodes>
        0 -1 12326 -1.9377344287931919e-03</internalNodes>
      <leafValues>
        -4.0374839305877686e-01 1.4471812546253204e-01</leafValues></_>
    <_>
      <internalNodes>
        0 -1 158332 -2.1188113838434219e-02</internalNodes>
      <leafValues>
        5.7574564218521118e-01 -1.4657385647296906e-01</leafValues></_>
    <_>
      <internalNodes>
        0 -1 142544 1.2528136372566223e-02</internalNodes>
      <leafValues>
        -1.7333139479160309e-01 4.2896240949630737e-01</leafValues></_>
    <_>
      <internalNodes>
        0 -1 162311 4.0076393634080887e-04</internalNodes>
      <leafValues>
        1.5000827610492706e-01 -5.6230247020721436e-01</leafValues></_>
    <_>
      <internalNodes>
        0 -1 57677 2.2408287040889263e-03</internalNodes>
      <leafValues>
        -1.1558486521244049e-01 5.8107888698577881e-01</leafValues></_>
    <_>
      <internalNodes>
        0 -1 53462 2.2723011206835508e-03</internalNodes>
      <leafValues>
        -4.2074105143547058e-01 1.3324731588363647e-01</leafValues></_>
    <_>
      <internalNodes>
        0 -1 64869 1.7283510416746140e-02</internalNodes>
      <leafValues>
        6.1303075402975082e-02 -7.0717221498489380e-01</leafValues></_>
    <_>
      <internalNodes>
        0 -1 40411 1.7509287595748901e-01</internalNodes>
      <leafValues>
        8.6209908127784729e-02 -7.0855659246444702e-01</leafValues></_>
    <_>
      <internalNodes>
        0 -1 76547 2.2385831922292709e-02</internalNodes>
      <leafValues>
        -1.7423404753208160e-01 4.6750277280807495e-01</leafValues></_>
    <_>
      <internalNodes>
        0 -1 60404 -7.8308004885911942e-03</internalNodes>
      <leafValues>
        4.0639165043830872e-01 -1.6645894944667816e-01</leafValues></_>
    <_>
      <internalNodes>
        0 -1 70681 5.3456742316484451e-03</internalNodes>
      <leafValues>
        -1.7624615132808685e-01 3.9000132679939270e-01</leafValues></_>
    <_>
      <internalNodes>
        0 -1 2178 -8.9152846485376358e-03</internalNodes>
      <leafValues>
        5.9842872619628906e-01 -9.4140619039535522e-02</leafValues></_>
    <_>
      <internalNodes>
        0 -1 52474 -5.7427339255809784e-02</internalNodes>
      <leafValues>
        -6.2537306547164917e-01 9.3006096780300140e-02</leafValues></_>
    <_>
      <internalNodes>
        0 -1 8809 9.8602799698710442e-04</internalNodes>
      <leafValues>
        8.0591008067131042e-02 -6.5258526802062988e-01</leafValues></_>
    <_>
      <internalNodes>
        0 -1 11495 2.9015101608820260e-04</internalNodes>
      <leafValues>
        1.3984014093875885e-01 -3.7351375818252563e-01</leafValues></_>
    <_>
      <internalNodes>
        0 -1 48981 2.1476163528859615e-03</internalNodes>
      <leafValues>
        1.1066586524248123e-01 -5.2935665845870972e-01</leafValues></_>
    <_>
      <internalNodes>
        0 -1 158782 -1.5864548040553927e-03</internalNodes>
      <leafValues>
        4.8785720020532608e-02 -7.9854607582092285e-01</leafValues></_></weakClassifiers></stage14>
</opencv_storage>
