<?xml version="1.0"?>
<opencv_storage>
<stage24>
  <maxWeakCount>5</maxWeakCount>
  <stageThreshold>-3.8384866714477539e-01</stageThreshold>
  <weakClassifiers>
    <_>
      <internalNodes>
        0 -1 806 -2146909904 151519244 268440579 -854554368 536903897
        -863371103 956307847 1124442258</internalNodes>
      <leafValues>
        -6.0498958826065063e-01 5.6069362163543701e-01</leafValues></_>
    <_>
      <internalNodes>
        0 -1 7082 -1346371787 -1614807170 -285263277 957808630
        2113454069 1861844847 1585381215 -1634572312</internalNodes>
      <leafValues>
        -4.4013988971710205e-01 8.0265742540359497e-01</leafValues></_>
    <_>
      <internalNodes>
        0 -1 7280 554664379 536953412 1 1501724677 -2012970830 134774848
        151331365 -120543870</internalNodes>
      <leafValues>
        -5.3806275129318237e-01 6.5515345335006714e-01</leafValues></_>
    <_>
      <internalNodes>
        0 -1 3959 -443225392 33620498 1082295298 -712376317 -2139094231
        25297040 8556713 -1817589728</internalNodes>
      <leafValues>
        -6.0963457822799683e-01 6.0669869184494019e-01</leafValues></_>
    <_>
      <internalNodes>
        0 -1 5583 -576721614 322923858 -100768431 1065295863 -33589032
        780140479 2138537707 -1965042235</internalNodes>
      <leafValues>
        -5.4992127418518066e-01 6.8121802806854248e-01</leafValues></_></weakClassifiers></stage24>
</opencv_storage>
