<?xml version="1.0"?>
<opencv_storage>
<stage7>
  <maxWeakCount>5</maxWeakCount>
  <stageThreshold>-8.5726612806320190e-01</stageThreshold>
  <weakClassifiers>
    <_>
      <internalNodes>
        0 -1 4142 -638465246 36283466 822165537 -2116271457 1405290896
        44138706 -2013151104 -238032197</internalNodes>
      <leafValues>
        -6.9780218601226807e-01 3.9937105774879456e-01</leafValues></_>
    <_>
      <internalNodes>
        0 -1 8401 -606641885 1116651861 -1862188472 5685377 1753948226
        813834758 -1207390154 -1014040093</internalNodes>
      <leafValues>
        -5.8742898702621460e-01 4.8982778191566467e-01</leafValues></_>
    <_>
      <internalNodes>
        0 -1 542 -820777361 1127825615 -536748340 1141178381 590603
        310485032 277973003 -465312337</internalNodes>
      <leafValues>
        -5.7194453477859497e-01 5.3768420219421387e-01</leafValues></_>
    <_>
      <internalNodes>
        0 -1 8409 -1276703997 659734592 269553664 82053 67340384
        42598401 -1056726528 -1596069247</internalNodes>
      <leafValues>
        -5.7893145084381104e-01 5.5031681060791016e-01</leafValues></_>
    <_>
      <internalNodes>
        0 -1 240 -1568153038 -345700303 1610617128 -1006628285 286929249
        -1290517951 42550021 -368051101</internalNodes>
      <leafValues>
        -6.2766391038894653e-01 5.0560718774795532e-01</leafValues></_></weakClassifiers></stage7>
</opencv_storage>
