<?xml version="1.0"?>
<opencv_storage>
<stage21>
  <maxWeakCount>5</maxWeakCount>
  <stageThreshold>-3.7465411424636841e-01</stageThreshold>
  <weakClassifiers>
    <_>
      <internalNodes>
        0 -1 6280 -1841168238 -2147433727 265 536887299 65681 16875524
        1074300929 -1295384255</internalNodes>
      <leafValues>
        -6.4482027292251587e-01 5.7874763011932373e-01</leafValues></_>
    <_>
      <internalNodes>
        0 -1 4697 1714998960 1579843460 -1447405088 -1154908540
        620653762 -1652564001 -1963821748 -1687988962</internalNodes>
      <leafValues>
        -5.5982565879821777e-01 6.6857659816741943e-01</leafValues></_>
    <_>
      <internalNodes>
        0 -1 5175 -2004105197 -1076440400 1929302801 -164962570
        -2072116583 862419750 1197364424 -70073265</internalNodes>
      <leafValues>
        -4.6821850538253784e-01 7.9602777957916260e-01</leafValues></_>
    <_>
      <internalNodes>
        0 -1 752 783220400 1992228590 805306357 1937764087 -570427755
        -268435465 1475835894 -1896548525</internalNodes>
      <leafValues>
        -5.6388467550277710e-01 7.1650409698486328e-01</leafValues></_>
    <_>
      <internalNodes>
        0 -1 2662 787464095 1853848700 -269 -542703634 -49322 1040089086
        -276922631 -1705859528</internalNodes>
      <leafValues>
        -5.8987516164779663e-01 7.0652252435684204e-01</leafValues></_></weakClassifiers></stage21>
</opencv_storage>
