<?xml version="1.0"?>
<opencv_storage>
<stage28>
  <maxWeakCount>5</maxWeakCount>
  <stageThreshold>-1.3517716526985168e-01</stageThreshold>
  <weakClassifiers>
    <_>
      <internalNodes>
        0 -1 2974 -605085005 1848770484 1189080602 -1438646341 216943613
        -1109919873 -554272001 -1902272517</internalNodes>
      <leafValues>
        -4.4858419895172119e-01 9.1489362716674805e-01</leafValues></_>
    <_>
      <internalNodes>
        0 -1 906 82034357 -700797322 1064793955 -1788772551 1219325937
        1567881215 -672661641 -1779030572</internalNodes>
      <leafValues>
        -4.5842543244361877e-01 7.8116643428802490e-01</leafValues></_>
    <_>
      <internalNodes>
        0 -1 6080 -1633020848 -1086816272 2147286909 1069154271
        -1082329219 -7 -1073940746 -1171178116</internalNodes>
      <leafValues>
        -6.1784440279006958e-01 6.5675401687622070e-01</leafValues></_>
    <_>
      <internalNodes>
        0 -1 5176 -22447344 -13691906 1324303973 1325330035 -1346371950
        -1128415241 237911833 -830472369</internalNodes>
      <leafValues>
        -6.0280632972717285e-01 7.1963560581207275e-01</leafValues></_>
    <_>
      <internalNodes>
        0 -1 2095 -759544986 -1275191234 805304317 896939504 804171604
        1610465271 803841982 1242424662</internalNodes>
      <leafValues>
        -5.0814729928970337e-01 7.5289136171340942e-01</leafValues></_></weakClassifiers></stage28>
</opencv_storage>
