<?xml version="1.0"?>
<opencv_storage>
<stage16>
  <maxWeakCount>6</maxWeakCount>
  <stageThreshold>-6.1197835206985474e-01</stageThreshold>
  <weakClassifiers>
    <_>
      <internalNodes>
        0 -1 7280 -212102374 709452050 268435489 963231747 -788528106
        285213061 1887502385 1418977927</internalNodes>
      <leafValues>
        -6.7173254489898682e-01 3.2935917377471924e-01</leafValues></_>
    <_>
      <internalNodes>
        0 -1 1208 1305736959 1455583232 -2112335290 47712403 88852927
        404488205 160108684 1415005067</internalNodes>
      <leafValues>
        -5.3927677869796753e-01 4.3531018495559692e-01</leafValues></_>
    <_>
      <internalNodes>
        0 -1 3236 -1383452584 524354996 -150959015 -1043885865
        1116787453 159514772 16844929 1774928140</internalNodes>
      <leafValues>
        -6.1823147535324097e-01 3.8998818397521973e-01</leafValues></_>
    <_>
      <internalNodes>
        0 -1 2822 1318257422 -1199374073 33594245 2122645570 148607417
        -1517805436 13648155 -935098226</internalNodes>
      <leafValues>
        -5.9306704998016357e-01 4.3426230549812317e-01</leafValues></_>
    <_>
      <internalNodes>
        0 -1 6908 285970826 287520803 -402653111 -225400812 1401227457
        1677951633 -1475296021 -388121621</internalNodes>
      <leafValues>
        -4.8548531532287598e-01 5.4546070098876953e-01</leafValues></_>
    <_>
      <internalNodes>
        0 -1 648 1331052878 -584039914 1342185477 606769163 2021664809
        -1862262746 -2122153076 -32356330</internalNodes>
      <leafValues>
        -6.8808352947235107e-01 3.9771872758865356e-01</leafValues></_></weakClassifiers></stage16>
</opencv_storage>
