<?xml version="1.0"?>
<opencv_storage>
<stage10>
  <maxWeakCount>6</maxWeakCount>
  <stageThreshold>-4.0023162961006165e-01</stageThreshold>
  <weakClassifiers>
    <_>
      <internalNodes>
        0 -1 8309 -582674432 33872537 -2105406460 12749761 1486373122
        -670203711 -222057594 -388045925</internalNodes>
      <leafValues>
        -6.3775509595870972e-01 4.1118422150611877e-01</leafValues></_>
    <_>
      <internalNodes>
        0 -1 6703 -1857825981 120266755 16846913 185458730 -1694307701
        -1315272694 1074349349 1368367547</internalNodes>
      <leafValues>
        -5.8558833599090576e-01 4.7318527102470398e-01</leafValues></_>
    <_>
      <internalNodes>
        0 -1 5912 -1204592549 -774207340 -1803530209 580226498 -32811811
        -1196772736 1075970885 -902672076</internalNodes>
      <leafValues>
        -6.7265802621841431e-01 4.3835973739624023e-01</leafValues></_>
    <_>
      <internalNodes>
        0 -1 1680 1220801295 -721420148 -1878931455 1460396034 1239786
        2770976 201441419 1932738834</internalNodes>
      <leafValues>
        -5.4251289367675781e-01 5.3831243515014648e-01</leafValues></_>
    <_>
      <internalNodes>
        0 -1 6060 -778612303 1880506890 33229 -1693024124 -1607017811
        -1459019648 -2102226751 -310859607</internalNodes>
      <leafValues>
        -5.5001753568649292e-01 5.8463317155838013e-01</leafValues></_>
    <_>
      <internalNodes>
        0 -1 1240 -379878485 -45014712 1147023 1747566790 67202350
        -669843453 578984362 1724229967</internalNodes>
      <leafValues>
        -6.0023790597915649e-01 5.2956736087799072e-01</leafValues></_></weakClassifiers></stage10>
</opencv_storage>
