<?xml version="1.0"?>
<opencv_storage>
<stage15>
  <maxWeakCount>6</maxWeakCount>
  <stageThreshold>-8.5713678598403931e-01</stageThreshold>
  <weakClassifiers>
    <_>
      <internalNodes>
        0 -1 8337 -843763 -1353973781 -134219998 -1055679570 -553681293
        1837105141 -143149225 -50339601</internalNodes>
      <leafValues>
        -4.1935482621192932e-01 5.2941179275512695e-01</leafValues></_>
    <_>
      <internalNodes>
        0 -1 1170 -968155057 1212154112 -2147466876 -53211053 1689153571
        -91586552 -634993861 -1350705141</internalNodes>
      <leafValues>
        -4.9326974153518677e-01 4.9868562817573547e-01</leafValues></_>
    <_>
      <internalNodes>
        0 -1 8069 -509899006 9883654 1078003712 683774119 -234706258
        1956725073 -494298375 -813448822</internalNodes>
      <leafValues>
        -4.8804965615272522e-01 5.1024240255355835e-01</leafValues></_>
    <_>
      <internalNodes>
        0 -1 5632 -600732520 -5398639 -135348756 1937202619 871799977
        -1220551076 1056853118 -1552222726</internalNodes>
      <leafValues>
        -4.8445987701416016e-01 5.7269573211669922e-01</leafValues></_>
    <_>
      <internalNodes>
        0 -1 9 703254506 -71766 1056931837 -1049033 -281061381 -8405001
        1342142207 -809502794</internalNodes>
      <leafValues>
        -4.1242647171020508e-01 6.3662385940551758e-01</leafValues></_>
    <_>
      <internalNodes>
        0 -1 5583 -237352680 286427420 285235585 890601577 -645398274
        948961426 -1607907144 -538828795</internalNodes>
      <leafValues>
        -5.5739319324493408e-01 5.0396633148193359e-01</leafValues></_></weakClassifiers></stage15>
</opencv_storage>
