<?xml version="1.0"?>
<opencv_storage>
<stage6>
  <maxWeakCount>4</maxWeakCount>
  <stageThreshold>-6.1139863729476929e-01</stageThreshold>
  <weakClassifiers>
    <_>
      <internalNodes>
        0 -1 4619 -597823285 9242630 1073909810 843087891 138561567
        1518534785 831079123 -90994022</internalNodes>
      <leafValues>
        -7.9674798250198364e-01 3.7795275449752808e-01</leafValues></_>
    <_>
      <internalNodes>
        0 -1 3884 -1044160505 306200581 688981019 -1723793383
        -1425975294 -484278144 -1879012142 1797245067</internalNodes>
      <leafValues>
        -7.1922826766967773e-01 5.5684769153594971e-01</leafValues></_>
    <_>
      <internalNodes>
        0 -1 2562 -208774976 1110556801 33090 -2138464181 16778083
        -100106237 -1577057918 -642778965</internalNodes>
      <leafValues>
        -8.0982524156570435e-01 5.1044219732284546e-01</leafValues></_>
    <_>
      <internalNodes>
        0 -1 187 -960339882 1073807881 285212677 -754972672 33554950
        268500996 -2113798133 -146087277</internalNodes>
      <leafValues>
        -7.3637384176254272e-01 6.2383180856704712e-01</leafValues></_></weakClassifiers></stage6>
</opencv_storage>
