<?xml version="1.0"?>
<opencv_storage>
<cascade>
  <stageType>BOOST</stageType>
  <featureType>HAAR</featureType>
  <height>24</height>
  <width>24</width>
  <stageParams>
    <boostType>GAB</boostType>
    <minHitRate>9.9500000476837158e-01</minHitRate>
    <maxFalseAlarm>5.0000000000000000e-01</maxFalseAlarm>
    <weightTrimRate>9.4999999999999996e-01</weightTrimRate>
    <maxDepth>1</maxDepth>
    <maxWeakCount>100</maxWeakCount></stageParams>
  <featureParams>
    <maxCatCount>0</maxCatCount>
    <featSize>1</featSize>
    <mode>BASIC</mode></featureParams>
  <stageNum>32</stageNum>
  <stages>
    <!-- stage 0 -->
    <_>
      <maxWeakCount>4</maxWeakCount>
      <stageThreshold>-7.4680745601654053e-01</stageThreshold>
      <weakClassifiers>
        <_>
          <internalNodes>
            0 -1 148 -1.9058916717767715e-02</internalNodes>
          <leafValues>
            7.6249998807907104e-01 -5.0833332538604736e-01</leafValues></_>
        <_>
          <internalNodes>
            0 -1 183 3.2854597084224224e-03</internalNodes>
          <leafValues>
            -5.4116791486740112e-01 6.3683807849884033e-01</leafValues></_>
        <_>
          <internalNodes>
            0 -1 116 4.8709744587540627e-03</internalNodes>
          <leafValues>
            -4.2456513643264771e-01 5.7305753231048584e-01</leafValues></_>
        <_>
          <internalNodes>
            0 -1 103 -6.6400482319295406e-03</internalNodes>
          <leafValues>
            7.9706346988677979e-01 -2.7036377787590027e-01</leafValues></_></weakClassifiers></_>
    <!-- stage 1 -->
    <_>
      <maxWeakCount>6</maxWeakCount>
      <stageThreshold>-9.4350135326385498e-01</stageThreshold>
      <weakClassifiers>
        <_>
          <internalNodes>
            0 -1 44 -7.2500184178352356e-03</internalNodes>
          <leafValues>
            6.7597764730453491e-01 -5.4751133918762207e-01</leafValues></_>
        <_>
          <internalNodes>
            0 -1 153 -8.3310818299651146e-03</internalNodes>
          <leafValues>
            -6.5617895126342773e-01 4.3137928843498230e-01</leafValues></_>
        <_>
          <internalNodes>
            0 -1 272 1.8011884531006217e-03</internalNodes>
          <leafValues>
            -3.9966613054275513e-01 7.3425287008285522e-01</leafValues></_>
        <_>
          <internalNodes>
            0 -1 302 2.3613937664777040e-03</internalNodes>
          <leafValues>
            -4.8024541139602661e-01 4.9224606156349182e-01</leafValues></_>
        <_>
          <internalNodes>
            0 -1 40 -3.6347992718219757e-03</internalNodes>
          <leafValues>
            5.4252928495407104e-01 -4.3670716881752014e-01</leafValues></_>
        <_>
          <internalNodes>
            0 -1 78 3.8298717699944973e-03</internalNodes>
          <leafValues>
            -4.8324212431907654e-01 5.3108102083206177e-01</leafValues></_></weakClassifiers></_>
    <!-- stage 2 -->
    <_>
      <maxWeakCount>11</maxWeakCount>
      <stageThreshold>-6.8946665525436401e-01</stageThreshold>
      <weakClassifiers>
        <_>
          <internalNodes>
            0 -1 175 -6.0682012699544430e-03</internalNodes>
          <leafValues>
            6.4197528362274170e-01 -4.3697479367256165e-01</leafValues></_>
        <_>
          <internalNodes>
            0 -1 261 -6.2251632334664464e-04</internalNodes>
          <leafValues>
            5.9118020534515381e-01 -3.3718135952949524e-01</leafValues></_>
        <_>
          <internalNodes>
            0 -1 129 -1.6108579933643341e-02</internalNodes>
          <leafValues>
            -7.3211389780044556e-01 2.9585281014442444e-01</leafValues></_>
        <_>
          <internalNodes>
            0 -1 214 -2.9300295282155275e-03</internalNodes>
          <leafValues>
            7.2519606351852417e-01 -2.5622427463531494e-01</leafValues></_>
        <_>
          <internalNodes>
            0 -1 259 1.4167880872264504e-03</internalNodes>
          <leafValues>
            -2.9167890548706055e-01 5.1153981685638428e-01</leafValues></_>
        <_>
          <internalNodes>
            0 -1 308 -1.6424441710114479e-02</internalNodes>
          <leafValues>
            5.6329464912414551e-01 -3.0398339033126831e-01</leafValues></_>
        <_>
          <internalNodes>
            0 -1 290 8.9659506920725107e-04</internalNodes>
          <leafValues>
            -2.5633278489112854e-01 6.9213676452636719e-01</leafValues></_>
        <_>
          <internalNodes>
            0 -1 359 1.8733264005277306e-04</internalNodes>
          <leafValues>
            -3.5334506630897522e-01 4.6318489313125610e-01</leafValues></_>
        <_>
          <internalNodes>
            0 -1 133 -1.6048021614551544e-02</internalNodes>
          <leafValues>
            -5.8417195081710815e-01 2.6521500945091248e-01</leafValues></_>
        <_>
          <internalNodes>
            0 -1 67 -2.8801856096833944e-03</internalNodes>
          <leafValues>
            6.3425457477569580e-01 -2.8364247083663940e-01</leafValues></_>
        <_>
          <internalNodes>
            0 -1 347 -4.1901646909536794e-05</internalNodes>
          <leafValues>
            4.6560984849929810e-01 -3.2681331038475037e-01</leafValues></_></weakClassifiers></_>
    <!-- stage 3 -->
    <_>
      <maxWeakCount>9</maxWeakCount>
      <stageThreshold>-7.1240347623825073e-01</stageThreshold>
      <weakClassifiers>
        <_>
          <internalNodes>
            0 -1 161 -2.1861698478460312e-03</internalNodes>
          <leafValues>
            6.0693639516830444e-01 -4.6255508065223694e-01</leafValues></_>
        <_>
          <internalNodes>
            0 -1 392 -1.2354549020528793e-02</internalNodes>
          <leafValues>
            6.9891798496246338e-01 -2.9985839128494263e-01</leafValues></_>
        <_>
          <internalNodes>
            0 -1 240 -2.2686170414090157e-03</internalNodes>
          <leafValues>
            7.8419262170791626e-01 -2.0763425529003143e-01</leafValues></_>
        <_>
          <internalNodes>
            0 -1 353 5.9821940958499908e-02</internalNodes>
          <leafValues>
            2.5661066174507141e-01 -7.3186314105987549e-01</leafValues></_>
        <_>
          <internalNodes>
            0 -1 130 -1.1463121045380831e-03</internalNodes>
          <leafValues>
            5.9910798072814941e-01 -2.6556542515754700e-01</leafValues></_>
        <_>
          <internalNodes>
            0 -1 151 7.0131365209817886e-03</internalNodes>
          <leafValues>
            -2.3444218933582306e-01 8.4409302473068237e-01</leafValues></_>
        <_>
          <internalNodes>
            0 -1 42 -1.0899955406785011e-02</internalNodes>
          <leafValues>
            7.8298819065093994e-01 -1.8613605201244354e-01</leafValues></_>
        <_>
          <internalNodes>
            0 -1 268 2.4126144126057625e-03</internalNodes>
          <leafValues>
            3.5332053899765015e-01 -5.1917165517807007e-01</leafValues></_>
        <_>
          <internalNodes>
            0 -1 69 -1.0945643298327923e-03</internalNodes>
          <leafValues>
            -5.0692129135131836e-01 3.3385667204856873e-01</leafValues></_></weakClassifiers></_>
    <!-- stage 4 -->
    <_>
      <maxWeakCount>10</maxWeakCount>
      <stageThreshold>-9.6473693847656250e-01</stageThreshold>
      <weakClassifiers>
        <_>
          <internalNodes>
            0 -1 333 -4.6318762004375458e-02</internalNodes>
          <leafValues>
            -8.0219781398773193e-01 2.3624595999717712e-01</leafValues></_>
        <_>
          <internalNodes>
            0 -1 97 -1.0963662527501583e-02</internalNodes>
          <leafValues>
            4.4211921095848083e-01 -4.1295650601387024e-01</leafValues></_>
        <_>
          <internalNodes>
            0 -1 206 -2.6056468486785889e-03</internalNodes>
          <leafValues>
            4.9432054162025452e-01 -3.9959704875946045e-01</leafValues></_>
        <_>
          <internalNodes>
            0 -1 5 9.5414025709033012e-03</internalNodes>
          <leafValues>
            -2.7834719419479370e-01 6.2867611646652222e-01</leafValues></_>
        <_>
          <internalNodes>
            0 -1 226 8.6931174155324697e-04</internalNodes>
          <leafValues>
            -4.8479896783828735e-01 3.0495688319206238e-01</leafValues></_>
        <_>
          <internalNodes>
            0 -1 275 2.3389162379316986e-04</internalNodes>
          <leafValues>
            -4.0768450498580933e-01 3.6490115523338318e-01</leafValues></_>
        <_>
          <internalNodes>
            0 -1 325 -4.6059740707278252e-03</internalNodes>
          <leafValues>
            5.6263679265975952e-01 -2.8820264339447021e-01</leafValues></_>
        <_>
          <internalNodes>
            0 -1 401 -2.7890596538782120e-03</internalNodes>
          <leafValues>
            -7.1535831689834595e-01 2.1549411118030548e-01</leafValues></_>
        <_>
          <internalNodes>
            0 -1 362 4.7025724779814482e-04</internalNodes>
          <leafValues>
            -2.9128599166870117e-01 4.8800486326217651e-01</leafValues></_>
        <_>
          <internalNodes>
            0 -1 238 -4.9948832020163536e-03</internalNodes>
          <leafValues>
            -3.1537011265754700e-01 4.3665295839309692e-01</leafValues></_></weakClassifiers></_>
    <!-- stage 5 -->
    <_>
      <maxWeakCount>7</maxWeakCount>
      <stageThreshold>-1.1263406276702881e+00</stageThreshold>
      <weakClassifiers>
        <_>
          <internalNodes>
            0 -1 193 -3.2101240009069443e-02</internalNodes>
          <leafValues>
            5.0549453496932983e-01 -4.2201834917068481e-01</leafValues></_>
        <_>
          <internalNodes>
            0 -1 224 6.0842810198664665e-03</internalNodes>
          <leafValues>
            -5.0848120450973511e-01 4.0338405966758728e-01</leafValues></_>
        <_>
          <internalNodes>
            0 -1 221 8.1895012408494949e-03</internalNodes>
          <leafValues>
            -2.6249960064888000e-01 6.3582909107208252e-01</leafValues></_>
        <_>
          <internalNodes>
            0 -1 131 -9.6918586641550064e-03</internalNodes>
          <leafValues>
            6.3449549674987793e-01 -2.6079192757606506e-01</leafValues></_>
        <_>
          <internalNodes>
            0 -1 140 -4.9777723848819733e-02</internalNodes>
          <leafValues>
            6.5971767902374268e-01 -2.1123665571212769e-01</leafValues></_>
        <_>
          <internalNodes>
            0 -1 24 1.3904103636741638e-01</internalNodes>
          <leafValues>
            -2.4656583368778229e-01 7.1830826997756958e-01</leafValues></_>
        <_>
          <internalNodes>
            0 -1 54 2.1055301651358604e-02</internalNodes>
          <leafValues>
            -1.7962114512920380e-01 7.9886960983276367e-01</leafValues></_></weakClassifiers></_>
    <!-- stage 6 -->
    <_>
      <maxWeakCount>8</maxWeakCount>
      <stageThreshold>-8.3969509601593018e-01</stageThreshold>
      <weakClassifiers>
        <_>
          <internalNodes>
            0 -1 68 5.6371944956481457e-03</internalNodes>
          <leafValues>
            -4.2574256658554077e-01 4.3434342741966248e-01</leafValues></_>
        <_>
          <internalNodes>
            0 -1 377 -9.3076601624488831e-03</internalNodes>
          <leafValues>
            7.0935761928558350e-01 -2.5748088955879211e-01</leafValues></_>
        <_>
          <internalNodes>
            0 -1 305 -2.8704823926091194e-02</internalNodes>
          <leafValues>
            -9.4754308462142944e-01 1.8630705773830414e-01</leafValues></_>
        <_>
          <internalNodes>
            0 -1 125 -1.1236488819122314e-02</internalNodes>
          <leafValues>
            5.0850367546081543e-01 -3.3791503310203552e-01</leafValues></_>
        <_>
          <internalNodes>
            0 -1 202 -1.2763435952365398e-03</internalNodes>
          <leafValues>
            6.0358458757400513e-01 -2.9365548491477966e-01</leafValues></_>
        <_>
          <internalNodes>
            0 -1 177 -4.5623287558555603e-02</internalNodes>
          <leafValues>
            6.3646006584167480e-01 -2.3739989101886749e-01</leafValues></_>
        <_>
          <internalNodes>
            0 -1 22 7.9223867505788803e-03</internalNodes>
          <leafValues>
            -1.9952969253063202e-01 7.3416447639465332e-01</leafValues></_>
        <_>
          <internalNodes>
            0 -1 294 2.9643382877111435e-02</internalNodes>
          <leafValues>
            -1.3436461985111237e-01 9.2665177583694458e-01</leafValues></_></weakClassifiers></_>
    <!-- stage 7 -->
    <_>
      <maxWeakCount>15</maxWeakCount>
      <stageThreshold>-1.1134266853332520e+00</stageThreshold>
      <weakClassifiers>
        <_>
          <internalNodes>
            0 -1 96 -1.3271061703562737e-02</internalNodes>
          <leafValues>
            5.9322035312652588e-01 -2.4822695553302765e-01</leafValues></_>
        <_>
          <internalNodes>
            0 -1 283 3.2554939389228821e-04</internalNodes>
          <leafValues>
            -3.0932080745697021e-01 4.8513910174369812e-01</leafValues></_>
        <_>
          <internalNodes>
            0 -1 276 4.3536252342164516e-03</internalNodes>
          <leafValues>
            -2.3994441330432892e-01 5.2852243185043335e-01</leafValues></_>
        <_>
          <internalNodes>
            0 -1 82 -7.4495287844911218e-04</internalNodes>
          <leafValues>
            5.1713567972183228e-01 -2.6226800680160522e-01</leafValues></_>
        <_>
          <internalNodes>
            0 -1 405 -8.7512619793415070e-03</internalNodes>
          <leafValues>
            6.9532257318496704e-01 -1.9108456373214722e-01</leafValues></_>
        <_>
          <internalNodes>
            0 -1 235 7.5582778081297874e-03</internalNodes>
          <leafValues>
            -1.5152716636657715e-01 6.3824224472045898e-01</leafValues></_>
        <_>
          <internalNodes>
            0 -1 316 7.9825920984148979e-03</internalNodes>
          <leafValues>
            -2.3888610303401947e-01 4.7042930126190186e-01</leafValues></_>
        <_>
          <internalNodes>
            0 -1 342 -1.3207085430622101e-03</internalNodes>
          <leafValues>
            6.3025617599487305e-01 -1.6785311698913574e-01</leafValues></_>
        <_>
          <internalNodes>
            0 -1 95 -6.8778693675994873e-02</internalNodes>
          <leafValues>
            8.1976330280303955e-01 -9.4286628067493439e-02</leafValues></_>
        <_>
          <internalNodes>
            0 -1 210 4.0001325309276581e-02</internalNodes>
          <leafValues>
            -2.3430784046649933e-01 6.0568451881408691e-01</leafValues></_>
        <_>
          <internalNodes>
            0 -1 166 2.4507826310582459e-04</internalNodes>
          <leafValues>
            -2.8136610984802246e-01 4.2726692557334900e-01</leafValues></_>
        <_>
          <internalNodes>
            0 -1 336 4.1098194196820259e-03</internalNodes>
          <leafValues>
            -4.3564307689666748e-01 2.9440304636955261e-01</leafValues></_>
        <_>
          <internalNodes>
            0 -1 188 -7.3864400386810303e-02</internalNodes>
          <leafValues>
            8.0301231145858765e-01 -1.4733552932739258e-01</leafValues></_>
        <_>
          <internalNodes>
            0 -1 145 3.8493219763040543e-03</internalNodes>
          <leafValues>
            -2.4919906258583069e-01 5.1252704858779907e-01</leafValues></_>
        <_>
          <internalNodes>
            0 -1 59 7.5916056521236897e-03</internalNodes>
          <leafValues>
            -1.5205882489681244e-01 7.8911346197128296e-01</leafValues></_></weakClassifiers></_>
    <!-- stage 8 -->
    <_>
      <maxWeakCount>13</maxWeakCount>
      <stageThreshold>-8.9586716890335083e-01</stageThreshold>
      <weakClassifiers>
        <_>
          <internalNodes>
            0 -1 43 -1.1752741411328316e-02</internalNodes>
          <leafValues>
            3.6898395419120789e-01 -3.2394367456436157e-01</leafValues></_>
        <_>
          <internalNodes>
            0 -1 85 7.0743104442954063e-03</internalNodes>
          <leafValues>
            -2.0397661626338959e-01 5.4907768964767456e-01</leafValues></_>
        <_>
          <internalNodes>
            0 -1 16 1.8737819045782089e-03</internalNodes>
          <leafValues>
            -3.9809015393257141e-01 2.7981874346733093e-01</leafValues></_>
        <_>
          <internalNodes>
            0 -1 339 -3.2712779939174652e-02</internalNodes>
          <leafValues>
            5.9257113933563232e-01 -2.3761188983917236e-01</leafValues></_>
        <_>
          <internalNodes>
            0 -1 71 7.1752239018678665e-03</internalNodes>
          <leafValues>
            -1.2567381560802460e-01 7.3804670572280884e-01</leafValues></_>
        <_>
          <internalNodes>
            0 -1 201 1.3592360541224480e-02</internalNodes>
          <leafValues>
            -1.3729588687419891e-01 7.1028929948806763e-01</leafValues></_>
        <_>
          <internalNodes>
            0 -1 196 2.9117456870153546e-04</internalNodes>
          <leafValues>
            2.5827315449714661e-01 -4.7631260752677917e-01</leafValues></_>
        <_>
          <internalNodes>
            0 -1 396 -5.6795652199070901e-05</internalNodes>
          <leafValues>
            -3.7672671675682068e-01 3.1981807947158813e-01</leafValues></_>
        <_>
          <internalNodes>
            0 -1 23 -1.9086872041225433e-01</internalNodes>
          <leafValues>
            -7.5284266471862793e-01 1.6045990586280823e-01</leafValues></_>
        <_>
          <internalNodes>
            0 -1 114 -1.8013902008533478e-02</internalNodes>
          <leafValues>
            -6.4668691158294678e-01 1.3092930614948273e-01</leafValues></_>
        <_>
          <internalNodes>
            0 -1 357 8.4516039351001382e-04</internalNodes>
          <leafValues>
            -3.7054374814033508e-01 3.0786123871803284e-01</leafValues></_>
        <_>
          <internalNodes>
            0 -1 248 -1.7682930454611778e-02</internalNodes>
          <leafValues>
            5.8093333244323730e-01 -1.7587794363498688e-01</leafValues></_>
        <_>
          <internalNodes>
            0 -1 412 -1.1429595178924501e-04</internalNodes>
          <leafValues>
            -4.4164481759071350e-01 2.9235470294952393e-01</leafValues></_></weakClassifiers></_>
    <!-- stage 9 -->
    <_>
      <maxWeakCount>10</maxWeakCount>
      <stageThreshold>-7.4293810129165649e-01</stageThreshold>
      <weakClassifiers>
        <_>
          <internalNodes>
            0 -1 397 1.1003938503563404e-02</internalNodes>
          <leafValues>
            -2.2580644488334656e-01 5.2066117525100708e-01</leafValues></_>
        <_>
          <internalNodes>
            0 -1 363 -1.1047088541090488e-02</internalNodes>
          <leafValues>
            -8.1951081752777100e-01 1.7328830063343048e-01</leafValues></_>
        <_>
          <internalNodes>
            0 -1 257 -1.0833069682121277e-01</internalNodes>
          <leafValues>
            4.3425917625427246e-01 -3.5367023944854736e-01</leafValues></_>
        <_>
          <internalNodes>
            0 -1 385 9.3790738901589066e-05</internalNodes>
          <leafValues>
            -4.5111316442489624e-01 2.6350173354148865e-01</leafValues></_>
        <_>
          <internalNodes>
            0 -1 164 8.2220770418643951e-02</internalNodes>
          <leafValues>
            -1.3413393497467041e-01 8.5806918144226074e-01</leafValues></_>
        <_>
          <internalNodes>
            0 -1 93 -2.6967711746692657e-03</internalNodes>
          <leafValues>
            -5.6364709138870239e-01 2.3787778615951538e-01</leafValues></_>
        <_>
          <internalNodes>
            0 -1 310 -1.0929822921752930e-02</internalNodes>
          <leafValues>
            -1.9158563017845154e-01 5.7890176773071289e-01</leafValues></_>
        <_>
          <internalNodes>
            0 -1 70 -3.6678713513538241e-04</internalNodes>
          <leafValues>
            -4.8709580302238464e-01 2.3279970884323120e-01</leafValues></_>
        <_>
          <internalNodes>
            0 -1 105 -6.9102561101317406e-03</internalNodes>
          <leafValues>
            5.7257431745529175e-01 -1.9414086639881134e-01</leafValues></_>
        <_>
          <internalNodes>
            0 -1 411 5.0833960995078087e-04</internalNodes>
          <leafValues>
            1.9458387792110443e-01 -7.9412364959716797e-01</leafValues></_></weakClassifiers></_>
    <!-- stage 10 -->
    <_>
      <maxWeakCount>13</maxWeakCount>
      <stageThreshold>-8.9393419027328491e-01</stageThreshold>
      <weakClassifiers>
        <_>
          <internalNodes>
            0 -1 38 -3.6831259727478027e-02</internalNodes>
          <leafValues>
            4.5783132314682007e-01 -3.2478633522987366e-01</leafValues></_>
        <_>
          <internalNodes>
            0 -1 135 4.1571785695850849e-03</internalNodes>
          <leafValues>
            -3.3606821298599243e-01 3.7939071655273438e-01</leafValues></_>
        <_>
          <internalNodes>
            0 -1 243 7.2639237623661757e-04</internalNodes>
          <leafValues>
            -3.7736469507217407e-01 2.9195180535316467e-01</leafValues></_>
        <_>
          <internalNodes>
            0 -1 33 6.8092125002294779e-04</internalNodes>
          <leafValues>
            1.2350764125585556e-01 -8.1454646587371826e-01</leafValues></_>
        <_>
          <internalNodes>
            0 -1 48 7.8135961666703224e-03</internalNodes>
          <leafValues>
            -1.6083241999149323e-01 6.9483375549316406e-01</leafValues></_>
        <_>
          <internalNodes>
            0 -1 149 -2.0641235634684563e-02</internalNodes>
          <leafValues>
            7.4524158239364624e-01 -1.3441210985183716e-01</leafValues></_>
        <_>
          <internalNodes>
            0 -1 14 -2.4890673812478781e-03</internalNodes>
          <leafValues>
            4.6635210514068604e-01 -2.0842473208904266e-01</leafValues></_>
        <_>
          <internalNodes>
            0 -1 391 -2.8758091502822936e-04</internalNodes>
          <leafValues>
            -6.7707145214080811e-01 1.6307978332042694e-01</leafValues></_>
        <_>
          <internalNodes>
            0 -1 60 -2.4004871957004070e-03</internalNodes>
          <leafValues>
            3.8908740878105164e-01 -2.7980333566665649e-01</leafValues></_>
        <_>
          <internalNodes>
            0 -1 98 -9.6235875389538705e-05</internalNodes>
          <leafValues>
            -3.8391959667205811e-01 2.7493229508399963e-01</leafValues></_>
        <_>
          <internalNodes>
            0 -1 330 8.5539493011310697e-04</internalNodes>
          <leafValues>
            -2.5696960091590881e-01 4.5884680747985840e-01</leafValues></_>
        <_>
          <internalNodes>
            0 -1 410 7.3029403574764729e-04</internalNodes>
          <leafValues>
            1.7829348146915436e-01 -7.6120686531066895e-01</leafValues></_>
        <_>
          <internalNodes>
            0 -1 399 -3.9133680984377861e-03</internalNodes>
          <leafValues>
            6.5475940704345703e-01 -2.3444129526615143e-01</leafValues></_></weakClassifiers></_>
    <!-- stage 11 -->
    <_>
      <maxWeakCount>10</maxWeakCount>
      <stageThreshold>-4.6400204300880432e-01</stageThreshold>
      <weakClassifiers>
        <_>
          <internalNodes>
            0 -1 154 -5.4149124771356583e-03</internalNodes>
          <leafValues>
            6.4444446563720703e-01 -1.8709677457809448e-01</leafValues></_>
        <_>
          <internalNodes>
            0 -1 285 8.7108388543128967e-03</internalNodes>
          <leafValues>
            -2.0818912982940674e-01 7.1386003494262695e-01</leafValues></_>
        <_>
          <internalNodes>
            0 -1 66 7.5319837778806686e-03</internalNodes>
          <leafValues>
            -1.2973892688751221e-01 6.9389134645462036e-01</leafValues></_>
        <_>
          <internalNodes>
            0 -1 380 -4.3230206938460469e-04</internalNodes>
          <leafValues>
            3.1472989916801453e-01 -3.4600123763084412e-01</leafValues></_>
        <_>
          <internalNodes>
            0 -1 361 -8.9155128225684166e-03</internalNodes>
          <leafValues>
            3.5333836078643799e-01 -3.1669330596923828e-01</leafValues></_>
        <_>
          <internalNodes>
            0 -1 262 -3.0229056719690561e-03</internalNodes>
          <leafValues>
            4.8087304830551147e-01 -1.8811167776584625e-01</leafValues></_>
        <_>
          <internalNodes>
            0 -1 152 8.0175623297691345e-03</internalNodes>
          <leafValues>
            -2.0214064419269562e-01 5.3585189580917358e-01</leafValues></_>
        <_>
          <internalNodes>
            0 -1 174 9.1749965213239193e-04</internalNodes>
          <leafValues>
            1.6609899699687958e-01 -9.5544868707656860e-01</leafValues></_>
        <_>
          <internalNodes>
            0 -1 384 2.5389388203620911e-02</internalNodes>
          <leafValues>
            -2.9165399074554443e-01 3.9651992917060852e-01</leafValues></_>
        <_>
          <internalNodes>
            0 -1 314 6.5507926046848297e-03</internalNodes>
          <leafValues>
            -9.0191237628459930e-02 7.9623675346374512e-01</leafValues></_></weakClassifiers></_>
    <!-- stage 12 -->
    <_>
      <maxWeakCount>12</maxWeakCount>
      <stageThreshold>-7.1378058195114136e-01</stageThreshold>
      <weakClassifiers>
        <_>
          <internalNodes>
            0 -1 406 -3.5101855173707008e-03</internalNodes>
          <leafValues>
            7.7419352531433105e-01 -1.4201183617115021e-01</leafValues></_>
        <_>
          <internalNodes>
            0 -1 197 3.4704178571701050e-02</internalNodes>
          <leafValues>
            -1.4664076268672943e-01 7.2134625911712646e-01</leafValues></_>
        <_>
          <internalNodes>
            0 -1 113 -9.9361129105091095e-03</internalNodes>
          <leafValues>
            5.2496498823165894e-01 -2.1199056506156921e-01</leafValues></_>
        <_>
          <internalNodes>
            0 -1 83 -1.5073046088218689e-02</internalNodes>
          <leafValues>
            7.6904398202896118e-01 -1.5742138028144836e-01</leafValues></_>
        <_>
          <internalNodes>
            0 -1 251 -5.1575591787695885e-03</internalNodes>
          <leafValues>
            6.7670720815658569e-01 -1.3209223747253418e-01</leafValues></_>
        <_>
          <internalNodes>
            0 -1 63 -2.9613100923597813e-03</internalNodes>
          <leafValues>
            -6.3466966152191162e-01 2.0670083165168762e-01</leafValues></_>
        <_>
          <internalNodes>
            0 -1 167 1.3019070029258728e-02</internalNodes>
          <leafValues>
            1.6704095900058746e-01 -7.4546360969543457e-01</leafValues></_>
        <_>
          <internalNodes>
            0 -1 213 -4.2922738939523697e-03</internalNodes>
          <leafValues>
            5.3122514486312866e-01 -2.1812427043914795e-01</leafValues></_>
        <_>
          <internalNodes>
            0 -1 169 2.7657549362629652e-03</internalNodes>
          <leafValues>
            -3.7818986177444458e-01 2.6882877945899963e-01</leafValues></_>
        <_>
          <internalNodes>
            0 -1 231 6.2339521944522858e-02</internalNodes>
          <leafValues>
            -1.7282798886299133e-01 5.4144924879074097e-01</leafValues></_>
        <_>
          <internalNodes>
            0 -1 15 1.7201271839439869e-03</internalNodes>
          <leafValues>
            -6.8369162082672119e-01 1.8076230585575104e-01</leafValues></_>
        <_>
          <internalNodes>
            0 -1 352 -2.8892331756651402e-03</internalNodes>
          <leafValues>
            5.8434039354324341e-01 -1.9284927845001221e-01</leafValues></_></weakClassifiers></_>
    <!-- stage 13 -->
    <_>
      <maxWeakCount>18</maxWeakCount>
      <stageThreshold>-1.2532863616943359e+00</stageThreshold>
      <weakClassifiers>
        <_>
          <internalNodes>
            0 -1 156 -7.6205707155168056e-03</internalNodes>
          <leafValues>
            8.0769228935241699e-01 -1.2068965286016464e-01</leafValues></_>
        <_>
          <internalNodes>
            0 -1 37 -3.6128677427768707e-02</internalNodes>
          <leafValues>
            4.3912944197654724e-01 -2.3381675779819489e-01</leafValues></_>
        <_>
          <internalNodes>
            0 -1 118 1.5450455248355865e-02</internalNodes>
          <leafValues>
            -1.6372726857662201e-01 6.5240037441253662e-01</leafValues></_>
        <_>
          <internalNodes>
            0 -1 335 -3.4099981188774109e-02</internalNodes>
          <leafValues>
            5.5803513526916504e-01 -1.6623079776763916e-01</leafValues></_>
        <_>
          <internalNodes>
            0 -1 124 -1.4311279170215130e-02</internalNodes>
          <leafValues>
            7.4366551637649536e-01 -1.5614725649356842e-01</leafValues></_>
        <_>
          <internalNodes>
            0 -1 21 -2.0800018310546875e-01</internalNodes>
          <leafValues>
            5.1588046550750732e-01 -2.0002989470958710e-01</leafValues></_>
        <_>
          <internalNodes>
            0 -1 100 7.4533829465508461e-03</internalNodes>
          <leafValues>
            -1.5378957986831665e-01 6.2120413780212402e-01</leafValues></_>
        <_>
          <internalNodes>
            0 -1 49 4.1302163153886795e-03</internalNodes>
          <leafValues>
            -1.7959947884082794e-01 5.3657591342926025e-01</leafValues></_>
        <_>
          <internalNodes>
            0 -1 298 1.4714168384671211e-02</internalNodes>
          <leafValues>
            -3.7670972943305969e-01 3.0039638280868530e-01</leafValues></_>
        <_>
          <internalNodes>
            0 -1 191 -3.4957518801093102e-04</internalNodes>
          <leafValues>
            3.9825823903083801e-01 -2.5745075941085815e-01</leafValues></_>
        <_>
          <internalNodes>
            0 -1 119 1.4272365951910615e-03</internalNodes>
          <leafValues>
            -3.4732475876808167e-01 2.8772273659706116e-01</leafValues></_>
        <_>
          <internalNodes>
            0 -1 322 8.6451543029397726e-04</internalNodes>
          <leafValues>
            1.6400063037872314e-01 -9.0728276968002319e-01</leafValues></_>
        <_>
          <internalNodes>
            0 -1 239 -1.4808285050094128e-03</internalNodes>
          <leafValues>
            6.0493868589401245e-01 -2.0471903681755066e-01</leafValues></_>
        <_>
          <internalNodes>
            0 -1 321 -1.0163930710405111e-04</internalNodes>
          <leafValues>
            3.7772029638290405e-01 -2.8551235795021057e-01</leafValues></_>
        <_>
          <internalNodes>
            0 -1 364 1.1077000817749649e-04</internalNodes>
          <leafValues>
            -2.5548502802848816e-01 3.8462129235267639e-01</leafValues></_>
        <_>
          <internalNodes>
            0 -1 265 -9.2899538576602936e-03</internalNodes>
          <leafValues>
            2.6812571287155151e-01 -3.6175978183746338e-01</leafValues></_>
        <_>
          <internalNodes>
            0 -1 104 -4.1088733822107315e-02</internalNodes>
          <leafValues>
            -7.9778206348419189e-01 1.3539771735668182e-01</leafValues></_>
        <_>
          <internalNodes>
            0 -1 20 2.1731731249019504e-04</internalNodes>
          <leafValues>
            -3.6138975620269775e-01 2.3465208709239960e-01</leafValues></_></weakClassifiers></_>
    <!-- stage 14 -->
    <_>
      <maxWeakCount>16</maxWeakCount>
      <stageThreshold>-1.1300066709518433e+00</stageThreshold>
      <weakClassifiers>
        <_>
          <internalNodes>
            0 -1 162 -3.3304567914456129e-03</internalNodes>
          <leafValues>
            3.2642486691474915e-01 -3.0434781312942505e-01</leafValues></_>
        <_>
          <internalNodes>
            0 -1 304 6.2699778936803341e-04</internalNodes>
          <leafValues>
            1.2084874510765076e-01 -7.5406259298324585e-01</leafValues></_>
        <_>
          <internalNodes>
            0 -1 10 4.5477081090211868e-02</internalNodes>
          <leafValues>
            -1.0755691677331924e-01 8.9038968086242676e-01</leafValues></_>
        <_>
          <internalNodes>
            0 -1 99 -1.2574682012200356e-02</internalNodes>
          <leafValues>
            7.5864070653915405e-01 -1.5329560637474060e-01</leafValues></_>
        <_>
          <internalNodes>
            0 -1 407 7.5717857107520103e-03</internalNodes>
          <leafValues>
            -1.2681619822978973e-01 8.6906802654266357e-01</leafValues></_>
        <_>
          <internalNodes>
            0 -1 393 -2.5556287728250027e-03</internalNodes>
          <leafValues>
            -3.1766518950462341e-01 3.1224495172500610e-01</leafValues></_>
        <_>
          <internalNodes>
            0 -1 186 -1.2067629024386406e-02</internalNodes>
          <leafValues>
            8.3125030994415283e-01 -1.2751916050910950e-01</leafValues></_>
        <_>
          <internalNodes>
            0 -1 123 -4.1536223143339157e-03</internalNodes>
          <leafValues>
            6.1237072944641113e-01 -1.2692432105541229e-01</leafValues></_>
        <_>
          <internalNodes>
            0 -1 254 1.2339276727288961e-03</internalNodes>
          <leafValues>
            -3.5072687268257141e-01 3.0824476480484009e-01</leafValues></_>
        <_>
          <internalNodes>
            0 -1 92 -8.2189741078764200e-04</internalNodes>
          <leafValues>
            -5.4614675045013428e-01 1.7350490391254425e-01</leafValues></_>
        <_>
          <internalNodes>
            0 -1 147 -4.1253846138715744e-03</internalNodes>
          <leafValues>
            6.8178874254226685e-01 -1.5121170878410339e-01</leafValues></_>
        <_>
          <internalNodes>
            0 -1 350 -6.0349823907017708e-03</internalNodes>
          <leafValues>
            -1. 1.3021950423717499e-01</leafValues></_>
        <_>
          <internalNodes>
            0 -1 84 4.2430623434484005e-03</internalNodes>
          <leafValues>
            -2.0457802712917328e-01 5.2608782052993774e-01</leafValues></_>
        <_>
          <internalNodes>
            0 -1 139 1.1427470599301159e-04</internalNodes>
          <leafValues>
            -3.0460399389266968e-01 3.3689785003662109e-01</leafValues></_>
        <_>
          <internalNodes>
            0 -1 176 4.7102635726332664e-03</internalNodes>
          <leafValues>
            -1.2318066507577896e-01 5.9208691120147705e-01</leafValues></_>
        <_>
          <internalNodes>
            0 -1 255 1.6826188948471099e-04</internalNodes>
          <leafValues>
            -4.9773222208023071e-01 1.8487496674060822e-01</leafValues></_></weakClassifiers></_>
    <!-- stage 15 -->
    <_>
      <maxWeakCount>16</maxWeakCount>
      <stageThreshold>-1.0356770753860474e+00</stageThreshold>
      <weakClassifiers>
        <_>
          <internalNodes>
            0 -1 74 -4.5255262404680252e-02</internalNodes>
          <leafValues>
            8.6046510934829712e-01 -1.0364145785570145e-01</leafValues></_>
        <_>
          <internalNodes>
            0 -1 72 -1.4276674017310143e-02</internalNodes>
          <leafValues>
            6.3162094354629517e-01 -1.8562459945678711e-01</leafValues></_>
        <_>
          <internalNodes>
            0 -1 271 -2.0562815479934216e-03</internalNodes>
          <leafValues>
            -6.1105859279632568e-01 2.0438756048679352e-01</leafValues></_>
        <_>
          <internalNodes>
            0 -1 17 1.8657236360013485e-03</internalNodes>
          <leafValues>
            -2.1040652692317963e-01 4.1030415892601013e-01</leafValues></_>
        <_>
          <internalNodes>
            0 -1 217 -5.1964771002531052e-02</internalNodes>
          <leafValues>
            5.6508278846740723e-01 -2.4782587587833405e-01</leafValues></_>
        <_>
          <internalNodes>
            0 -1 222 -1.1548658367246389e-03</internalNodes>
          <leafValues>
            6.0509568452835083e-01 -1.3109755516052246e-01</leafValues></_>
        <_>
          <internalNodes>
            0 -1 58 -1.4435150660574436e-03</internalNodes>
          <leafValues>
            -1. 1.0876863449811935e-01</leafValues></_>
        <_>
          <internalNodes>
            0 -1 318 -3.7472631083801389e-04</internalNodes>
          <leafValues>
            3.1883817911148071e-01 -2.9984799027442932e-01</leafValues></_>
        <_>
          <internalNodes>
            0 -1 62 8.6509495973587036e-02</internalNodes>
          <leafValues>
            -1.2373992800712585e-01 7.8895682096481323e-01</leafValues></_>
        <_>
          <internalNodes>
            0 -1 111 1.2449221685528755e-02</internalNodes>
          <leafValues>
            -2.9834744334220886e-01 3.5966613888740540e-01</leafValues></_>
        <_>
          <internalNodes>
            0 -1 228 7.8502278774976730e-03</internalNodes>
          <leafValues>
            -2.1389876306056976e-01 4.6170881390571594e-01</leafValues></_>
        <_>
          <internalNodes>
            0 -1 326 -5.8551849797368050e-03</internalNodes>
          <leafValues>
            4.2672535777091980e-01 -2.4830472469329834e-01</leafValues></_>
        <_>
          <internalNodes>
            0 -1 388 -9.5024157781153917e-04</internalNodes>
          <leafValues>
            3.3183109760284424e-01 -2.7500000596046448e-01</leafValues></_>
        <_>
          <internalNodes>
            0 -1 278 -1.5570293180644512e-03</internalNodes>
          <leafValues>
            3.9679253101348877e-01 -2.3332479596138000e-01</leafValues></_>
        <_>
          <internalNodes>
            0 -1 232 5.5503094336017966e-04</internalNodes>
          <leafValues>
            -2.4345807731151581e-01 4.3600609898567200e-01</leafValues></_>
        <_>
          <internalNodes>
            0 -1 30 2.1474075037986040e-04</internalNodes>
          <leafValues>
            1.7755353450775146e-01 -4.9727863073348999e-01</leafValues></_></weakClassifiers></_>
    <!-- stage 16 -->
    <_>
      <maxWeakCount>14</maxWeakCount>
      <stageThreshold>-5.1009851694107056e-01</stageThreshold>
      <weakClassifiers>
        <_>
          <internalNodes>
            0 -1 236 9.4729252159595490e-03</internalNodes>
          <leafValues>
            -2.1299639344215393e-01 4.7967478632926941e-01</leafValues></_>
        <_>
          <internalNodes>
            0 -1 244 -3.3156762947328389e-04</internalNodes>
          <leafValues>
            3.9342010021209717e-01 -2.3228867352008820e-01</leafValues></_>
        <_>
          <internalNodes>
            0 -1 141 4.3737259693443775e-03</internalNodes>
          <leafValues>
            1.4283888041973114e-01 -6.2810498476028442e-01</leafValues></_>
        <_>
          <internalNodes>
            0 -1 171 -5.8852718211710453e-04</internalNodes>
          <leafValues>
            4.0999114513397217e-01 -2.0074330270290375e-01</leafValues></_>
        <_>
          <internalNodes>
            0 -1 127 -1.3447027653455734e-02</internalNodes>
          <leafValues>
            6.4506584405899048e-01 -1.6263602674007416e-01</leafValues></_>
        <_>
          <internalNodes>
            0 -1 323 -4.0967566892504692e-03</internalNodes>
          <leafValues>
            4.4308540225028992e-01 -2.0824010670185089e-01</leafValues></_>
        <_>
          <internalNodes>
            0 -1 368 -2.7467345818877220e-02</internalNodes>
          <leafValues>
            7.9498714208602905e-01 -1.2281686067581177e-01</leafValues></_>
        <_>
          <internalNodes>
            0 -1 160 8.7712064385414124e-02</internalNodes>
          <leafValues>
            -8.5798621177673340e-02 7.0799106359481812e-01</leafValues></_>
        <_>
          <internalNodes>
            0 -1 76 6.2542748637497425e-03</internalNodes>
          <leafValues>
            -2.1155692636966705e-01 4.3454784154891968e-01</leafValues></_>
        <_>
          <internalNodes>
            0 -1 172 -1.9138248171657324e-03</internalNodes>
          <leafValues>
            -5.8604186773300171e-01 1.9059330224990845e-01</leafValues></_>
        <_>
          <internalNodes>
            0 -1 35 9.0323342010378838e-04</internalNodes>
          <leafValues>
            2.4225562810897827e-01 -4.1534906625747681e-01</leafValues></_>
        <_>
          <internalNodes>
            0 -1 345 1.3432332780212164e-03</internalNodes>
          <leafValues>
            -1.2961284816265106e-01 6.6215348243713379e-01</leafValues></_>
        <_>
          <internalNodes>
            0 -1 109 -7.6502664014697075e-03</internalNodes>
          <leafValues>
            -5.8095282316207886e-01 1.7213241755962372e-01</leafValues></_>
        <_>
          <internalNodes>
            0 -1 225 -4.1959746740758419e-03</internalNodes>
          <leafValues>
            4.1053071618080139e-01 -2.7327162027359009e-01</leafValues></_></weakClassifiers></_>
    <!-- stage 17 -->
    <_>
      <maxWeakCount>17</maxWeakCount>
      <stageThreshold>-9.8964738845825195e-01</stageThreshold>
      <weakClassifiers>
        <_>
          <internalNodes>
            0 -1 97 -1.1316025629639626e-02</internalNodes>
          <leafValues>
            3.2994922995567322e-01 -3.2019704580307007e-01</leafValues></_>
        <_>
          <internalNodes>
            0 -1 387 -1.1036975309252739e-02</internalNodes>
          <leafValues>
            -6.3906908035278320e-01 1.3562710583209991e-01</leafValues></_>
        <_>
          <internalNodes>
            0 -1 340 1.8235078081488609e-02</internalNodes>
          <leafValues>
            -1.9483865797519684e-01 4.6349224448204041e-01</leafValues></_>
        <_>
          <internalNodes>
            0 -1 402 -9.3114292249083519e-03</internalNodes>
          <leafValues>
            6.6230362653732300e-01 -1.9397410750389099e-01</leafValues></_>
        <_>
          <internalNodes>
            0 -1 198 -6.6381576471030712e-03</internalNodes>
          <leafValues>
            5.6793206930160522e-01 -1.7481637001037598e-01</leafValues></_>
        <_>
          <internalNodes>
            0 -1 57 -9.2212520539760590e-03</internalNodes>
          <leafValues>
            4.4458928704261780e-01 -2.3673978447914124e-01</leafValues></_>
        <_>
          <internalNodes>
            0 -1 416 -5.0255708629265428e-04</internalNodes>
          <leafValues>
            -6.5394318103790283e-01 1.3621671497821808e-01</leafValues></_>
        <_>
          <internalNodes>
            0 -1 41 1.3754714280366898e-02</internalNodes>
          <leafValues>
            -1.4766333997249603e-01 7.5537043809890747e-01</leafValues></_>
        <_>
          <internalNodes>
            0 -1 356 1.1991474311798811e-03</internalNodes>
          <leafValues>
            1.9672355055809021e-01 -6.4579308032989502e-01</leafValues></_>
        <_>
          <internalNodes>
            0 -1 52 1.2171526998281479e-01</internalNodes>
          <leafValues>
            1.3771225512027740e-01 -7.5093305110931396e-01</leafValues></_>
        <_>
          <internalNodes>
            0 -1 327 -1.7514996230602264e-02</internalNodes>
          <leafValues>
            -6.6000860929489136e-01 1.2687522172927856e-01</leafValues></_>
        <_>
          <internalNodes>
            0 -1 180 1.8451508134603500e-02</internalNodes>
          <leafValues>
            -1.6314542293548584e-01 6.1085563898086548e-01</leafValues></_>
        <_>
          <internalNodes>
            0 -1 137 6.9514068309217691e-04</internalNodes>
          <leafValues>
            1.7897440493106842e-01 -7.2298121452331543e-01</leafValues></_>
        <_>
          <internalNodes>
            0 -1 146 1.4251125976443291e-03</internalNodes>
          <leafValues>
            -2.2741231322288513e-01 5.3972172737121582e-01</leafValues></_>
        <_>
          <internalNodes>
            0 -1 320 9.1552955564111471e-04</internalNodes>
          <leafValues>
            1.4785470068454742e-01 -7.3975938558578491e-01</leafValues></_>
        <_>
          <internalNodes>
            0 -1 296 1.0238280519843102e-03</internalNodes>
          <leafValues>
            -2.6278638839721680e-01 3.9843717217445374e-01</leafValues></_>
        <_>
          <internalNodes>
            0 -1 242 -4.4332686229608953e-04</internalNodes>
          <leafValues>
            -6.9189465045928955e-01 1.3172562420368195e-01</leafValues></_></weakClassifiers></_>
    <!-- stage 18 -->
    <_>
      <maxWeakCount>16</maxWeakCount>
      <stageThreshold>-4.7436872124671936e-01</stageThreshold>
      <weakClassifiers>
        <_>
          <internalNodes>
            0 -1 34 -2.9474529437720776e-03</internalNodes>
          <leafValues>
            -7.1929824352264404e-01 1.1953353136777878e-01</leafValues></_>
        <_>
          <internalNodes>
            0 -1 44 -1.3364611193537712e-02</internalNodes>
          <leafValues>
            2.9038512706756592e-01 -2.9236945509910583e-01</leafValues></_>
        <_>
          <internalNodes>
            0 -1 112 -2.8278115205466747e-03</internalNodes>
          <leafValues>
            3.1658902764320374e-01 -3.0493098497390747e-01</leafValues></_>
        <_>
          <internalNodes>
            0 -1 400 -1.9771957304328680e-03</internalNodes>
          <leafValues>
            -8.8566756248474121e-01 9.8584547638893127e-02</leafValues></_>
        <_>
          <internalNodes>
            0 -1 379 -2.9706456698477268e-03</internalNodes>
          <leafValues>
            4.1339871287345886e-01 -2.3256202042102814e-01</leafValues></_>
        <_>
          <internalNodes>
            0 -1 142 -3.1516854651272297e-03</internalNodes>
          <leafValues>
            7.1325862407684326e-01 -1.4622499048709869e-01</leafValues></_>
        <_>
          <internalNodes>
            0 -1 0 5.4610064253211021e-03</internalNodes>
          <leafValues>
            -1.7474387586116791e-01 4.3874034285545349e-01</leafValues></_>
        <_>
          <internalNodes>
            0 -1 247 -3.8007088005542755e-04</internalNodes>
          <leafValues>
            4.0053200721740723e-01 -2.1622818708419800e-01</leafValues></_>
        <_>
          <internalNodes>
            0 -1 106 -1.8464471213519573e-03</internalNodes>
          <leafValues>
            -8.3690440654754639e-01 8.8767491281032562e-02</leafValues></_>
        <_>
          <internalNodes>
            0 -1 7 -3.4300307743251324e-03</internalNodes>
          <leafValues>
            5.9328126907348633e-01 -1.6260358691215515e-01</leafValues></_>
        <_>
          <internalNodes>
            0 -1 89 -2.4529672227799892e-03</internalNodes>
          <leafValues>
            -5.1472902297973633e-01 1.9049809873104095e-01</leafValues></_>
        <_>
          <internalNodes>
            0 -1 192 5.8959540911018848e-04</internalNodes>
          <leafValues>
            -2.4431122839450836e-01 3.8074272871017456e-01</leafValues></_>
        <_>
          <internalNodes>
            0 -1 144 8.7650306522846222e-03</internalNodes>
          <leafValues>
            1.4952822029590607e-01 -7.9227155447006226e-01</leafValues></_>
        <_>
          <internalNodes>
            0 -1 394 -1.0535744950175285e-02</internalNodes>
          <leafValues>
            3.8616314530372620e-01 -2.4660496413707733e-01</leafValues></_>
        <_>
          <internalNodes>
            0 -1 181 1.6341942548751831e-01</internalNodes>
          <leafValues>
            -1.4579540491104126e-01 7.6117485761642456e-01</leafValues></_>
        <_>
          <internalNodes>
            0 -1 94 -5.2471193484961987e-03</internalNodes>
          <leafValues>
            5.8758610486984253e-01 -1.5114471316337585e-01</leafValues></_></weakClassifiers></_>
    <!-- stage 19 -->
    <_>
      <maxWeakCount>16</maxWeakCount>
      <stageThreshold>-5.3842675685882568e-01</stageThreshold>
      <weakClassifiers>
        <_>
          <internalNodes>
            0 -1 203 7.4662831611931324e-03</internalNodes>
          <leafValues>
            -1.5384615957736969e-01 5.4545456171035767e-01</leafValues></_>
        <_>
          <internalNodes>
            0 -1 6 1.1018166318535805e-02</internalNodes>
          <leafValues>
            -1.8133465945720673e-01 4.6194371581077576e-01</leafValues></_>
        <_>
          <internalNodes>
            0 -1 88 -2.1673300862312317e-01</internalNodes>
          <leafValues>
            4.7763860225677490e-01 -1.9159182906150818e-01</leafValues></_>
        <_>
          <internalNodes>
            0 -1 173 -3.4566298127174377e-03</internalNodes>
          <leafValues>
            6.0484117269515991e-01 -1.7039029300212860e-01</leafValues></_>
        <_>
          <internalNodes>
            0 -1 373 4.7665089368820190e-03</internalNodes>
          <leafValues>
            -1.5733744204044342e-01 4.8275396227836609e-01</leafValues></_>
        <_>
          <internalNodes>
            0 -1 128 3.4873045980930328e-02</internalNodes>
          <leafValues>
            -1.2313253432512283e-01 7.2380608320236206e-01</leafValues></_>
        <_>
          <internalNodes>
            0 -1 209 4.2484924197196960e-03</internalNodes>
          <leafValues>
            -1.5697769820690155e-01 5.4901605844497681e-01</leafValues></_>
        <_>
          <internalNodes>
            0 -1 28 -4.0956162847578526e-03</internalNodes>
          <leafValues>
            -6.7867237329483032e-01 1.7818380892276764e-01</leafValues></_>
        <_>
          <internalNodes>
            0 -1 301 3.2922364771366119e-03</internalNodes>
          <leafValues>
            -3.6618146300315857e-01 2.3558375239372253e-01</leafValues></_>
        <_>
          <internalNodes>
            0 -1 73 3.4821080043911934e-03</internalNodes>
          <leafValues>
            -1.5744678676128387e-01 6.3676577806472778e-01</leafValues></_>
        <_>
          <internalNodes>
            0 -1 382 2.8898584423586726e-04</internalNodes>
          <leafValues>
            2.9769217967987061e-01 -3.2041019201278687e-01</leafValues></_>
        <_>
          <internalNodes>
            0 -1 346 -2.8167665004730225e-04</internalNodes>
          <leafValues>
            2.5871771574020386e-01 -3.3470356464385986e-01</leafValues></_>
        <_>
          <internalNodes>
            0 -1 355 6.6416902700439095e-04</internalNodes>
          <leafValues>
            -1.4656306803226471e-01 6.3627701997756958e-01</leafValues></_>
        <_>
          <internalNodes>
            0 -1 286 1.7274070996791124e-03</internalNodes>
          <leafValues>
            1.8191535770893097e-01 -5.2917921543121338e-01</leafValues></_>
        <_>
          <internalNodes>
            0 -1 376 -5.1596667617559433e-04</internalNodes>
          <leafValues>
            -6.5529286861419678e-01 1.2321315705776215e-01</leafValues></_>
        <_>
          <internalNodes>
            0 -1 378 1.3084519014228135e-04</internalNodes>
          <leafValues>
            -2.8250312805175781e-01 3.3598235249519348e-01</leafValues></_></weakClassifiers></_>
    <!-- stage 20 -->
    <_>
      <maxWeakCount>13</maxWeakCount>
      <stageThreshold>-9.3525505065917969e-01</stageThreshold>
      <weakClassifiers>
        <_>
          <internalNodes>
            0 -1 126 6.0765864327549934e-03</internalNodes>
          <leafValues>
            -1.4374999701976776e-01 5.7499998807907104e-01</leafValues></_>
        <_>
          <internalNodes>
            0 -1 229 4.2396942153573036e-03</internalNodes>
          <leafValues>
            -1.5496174991130829e-01 5.5698078870773315e-01</leafValues></_>
        <_>
          <internalNodes>
            0 -1 281 -2.5644795969128609e-02</internalNodes>
          <leafValues>
            4.5644313097000122e-01 -2.1204149723052979e-01</leafValues></_>
        <_>
          <internalNodes>
            0 -1 65 2.9432722367346287e-03</internalNodes>
          <leafValues>
            -2.4428091943264008e-01 3.5506367683410645e-01</leafValues></_>
        <_>
          <internalNodes>
            0 -1 381 6.4608361572027206e-04</internalNodes>
          <leafValues>
            1.4674714207649231e-01 -7.4724155664443970e-01</leafValues></_>
        <_>
          <internalNodes>
            0 -1 200 -8.8454093784093857e-03</internalNodes>
          <leafValues>
            9.0447866916656494e-01 -1.0280151665210724e-01</leafValues></_>
        <_>
          <internalNodes>
            0 -1 29 5.2363919094204903e-03</internalNodes>
          <leafValues>
            -1.9321610033512115e-01 5.2678418159484863e-01</leafValues></_>
        <_>
          <internalNodes>
            0 -1 31 2.4962588213384151e-03</internalNodes>
          <leafValues>
            1.7363306879997253e-01 -7.4124085903167725e-01</leafValues></_>
        <_>
          <internalNodes>
            0 -1 293 -1.0558445937931538e-03</internalNodes>
          <leafValues>
            -2.7730515599250793e-01 3.8173434138298035e-01</leafValues></_>
        <_>
          <internalNodes>
            0 -1 266 9.6307107014581561e-05</internalNodes>
          <leafValues>
            -3.5140696167945862e-01 3.0261069536209106e-01</leafValues></_>
        <_>
          <internalNodes>
            0 -1 195 7.0569023955613375e-04</internalNodes>
          <leafValues>
            1.9673453271389008e-01 -5.2912986278533936e-01</leafValues></_>
        <_>
          <internalNodes>
            0 -1 234 5.5065832566469908e-04</internalNodes>
          <leafValues>
            -2.4616634845733643e-01 4.7964021563529968e-01</leafValues></_>
        <_>
          <internalNodes>
            0 -1 354 5.7303690118715167e-04</internalNodes>
          <leafValues>
            -1.8780979514122009e-01 5.0145423412322998e-01</leafValues></_></weakClassifiers></_>
    <!-- stage 21 -->
    <_>
      <maxWeakCount>14</maxWeakCount>
      <stageThreshold>-6.3293290138244629e-01</stageThreshold>
      <weakClassifiers>
        <_>
          <internalNodes>
            0 -1 43 -1.4262551441788673e-02</internalNodes>
          <leafValues>
            3.5714286565780640e-01 -2.5862067937850952e-01</leafValues></_>
        <_>
          <internalNodes>
            0 -1 75 -1.7335580289363861e-01</internalNodes>
          <leafValues>
            5.0058925151824951e-01 -1.7720173299312592e-01</leafValues></_>
        <_>
          <internalNodes>
            0 -1 415 -1.3386257924139500e-03</internalNodes>
          <leafValues>
            -5.6777495145797729e-01 1.7597420513629913e-01</leafValues></_>
        <_>
          <internalNodes>
            0 -1 237 -1.2134150601923466e-03</internalNodes>
          <leafValues>
            3.3418864011764526e-01 -3.2665956020355225e-01</leafValues></_>
        <_>
          <internalNodes>
            0 -1 178 -9.3685649335384369e-03</internalNodes>
          <leafValues>
            8.5107231140136719e-01 -3.6701660603284836e-02</leafValues></_>
        <_>
          <internalNodes>
            0 -1 2 1.0560929775238037e-02</internalNodes>
          <leafValues>
            -1.5763844549655914e-01 5.5626153945922852e-01</leafValues></_>
        <_>
          <internalNodes>
            0 -1 170 7.2388065746054053e-04</internalNodes>
          <leafValues>
            -1.4405541121959686e-01 5.7133692502975464e-01</leafValues></_>
        <_>
          <internalNodes>
            0 -1 374 1.8208630383014679e-02</internalNodes>
          <leafValues>
            -1.3312977552413940e-01 6.8138676881790161e-01</leafValues></_>
        <_>
          <internalNodes>
            0 -1 358 -4.2411309550516307e-04</internalNodes>
          <leafValues>
            -5.4167789220809937e-01 2.3063556849956512e-01</leafValues></_>
        <_>
          <internalNodes>
            0 -1 349 -7.9871439083945006e-05</internalNodes>
          <leafValues>
            3.2782173156738281e-01 -3.0872982740402222e-01</leafValues></_>
        <_>
          <internalNodes>
            0 -1 136 1.5745358541607857e-03</internalNodes>
          <leafValues>
            1.1024422943592072e-01 -8.5956650972366333e-01</leafValues></_>
        <_>
          <internalNodes>
            0 -1 273 -1.0360982269048691e-02</internalNodes>
          <leafValues>
            5.9122312068939209e-01 -1.7343915998935699e-01</leafValues></_>
        <_>
          <internalNodes>
            0 -1 189 7.5425882823765278e-04</internalNodes>
          <leafValues>
            -1.9313834607601166e-01 5.0051504373550415e-01</leafValues></_>
        <_>
          <internalNodes>
            0 -1 19 -1.1680973693728447e-03</internalNodes>
          <leafValues>
            -5.9294742345809937e-01 1.7989732325077057e-01</leafValues></_></weakClassifiers></_>
    <!-- stage 22 -->
    <_>
      <maxWeakCount>19</maxWeakCount>
      <stageThreshold>-9.5622372627258301e-01</stageThreshold>
      <weakClassifiers>
        <_>
          <internalNodes>
            0 -1 311 1.8348218873143196e-02</internalNodes>
          <leafValues>
            -1.2574850022792816e-01 6.3636362552642822e-01</leafValues></_>
        <_>
          <internalNodes>
            0 -1 1 -6.6769723780453205e-03</internalNodes>
          <leafValues>
            6.7286306619644165e-01 -9.4880156219005585e-02</leafValues></_>
        <_>
          <internalNodes>
            0 -1 389 4.1064358811127022e-05</internalNodes>
          <leafValues>
            -2.7492007613182068e-01 2.6577100157737732e-01</leafValues></_>
        <_>
          <internalNodes>
            0 -1 27 -2.0486187934875488e-01</internalNodes>
          <leafValues>
            3.8068094849586487e-01 -2.1373081207275391e-01</leafValues></_>
        <_>
          <internalNodes>
            0 -1 64 6.5834331326186657e-04</internalNodes>
          <leafValues>
            2.7859228849411011e-01 -3.1579777598381042e-01</leafValues></_>
        <_>
          <internalNodes>
            0 -1 256 -9.1378083452582359e-03</internalNodes>
          <leafValues>
            -9.3183857202529907e-01 1.2036132812500000e-01</leafValues></_>
        <_>
          <internalNodes>
            0 -1 227 4.4129200978204608e-04</internalNodes>
          <leafValues>
            -3.1430089473724365e-01 3.5421451926231384e-01</leafValues></_>
        <_>
          <internalNodes>
            0 -1 331 -1.4788198750466108e-03</internalNodes>
          <leafValues>
            4.9198061227798462e-01 -1.5870888531208038e-01</leafValues></_>
        <_>
          <internalNodes>
            0 -1 108 -5.2776834927499294e-03</internalNodes>
          <leafValues>
            3.3046498894691467e-01 -3.0251741409301758e-01</leafValues></_>
        <_>
          <internalNodes>
            0 -1 297 7.4153987225145102e-04</internalNodes>
          <leafValues>
            -3.4916901588439941e-01 2.5923860073089600e-01</leafValues></_>
        <_>
          <internalNodes>
            0 -1 309 -3.4952587448060513e-03</internalNodes>
          <leafValues>
            6.5943568944931030e-01 -1.2443703413009644e-01</leafValues></_>
        <_>
          <internalNodes>
            0 -1 163 5.2729574963450432e-04</internalNodes>
          <leafValues>
            -2.5721606612205505e-01 3.9348480105400085e-01</leafValues></_>
        <_>
          <internalNodes>
            0 -1 250 2.0442311652004719e-03</internalNodes>
          <leafValues>
            -1.2491659820079803e-01 6.9885426759719849e-01</leafValues></_>
        <_>
          <internalNodes>
            0 -1 45 1.5073787653818727e-03</internalNodes>
          <leafValues>
            -2.3042282462120056e-01 3.8527786731719971e-01</leafValues></_>
        <_>
          <internalNodes>
            0 -1 165 2.2047575563192368e-02</internalNodes>
          <leafValues>
            -1.0702386498451233e-01 8.6432385444641113e-01</leafValues></_>
        <_>
          <internalNodes>
            0 -1 315 -1.6885668039321899e-02</internalNodes>
          <leafValues>
            6.7153358459472656e-01 -9.0339489281177521e-02</leafValues></_>
        <_>
          <internalNodes>
            0 -1 26 2.2560902871191502e-03</internalNodes>
          <leafValues>
            -2.2789819538593292e-01 4.2641097307205200e-01</leafValues></_>
        <_>
          <internalNodes>
            0 -1 158 -3.3349799923598766e-03</internalNodes>
          <leafValues>
            4.5130026340484619e-01 -1.9203108549118042e-01</leafValues></_>
        <_>
          <internalNodes>
            0 -1 208 -8.8179126381874084e-02</internalNodes>
          <leafValues>
            7.7998942136764526e-01 -1.1163821816444397e-01</leafValues></_></weakClassifiers></_>
    <!-- stage 23 -->
    <_>
      <maxWeakCount>17</maxWeakCount>
      <stageThreshold>-8.4801858663558960e-01</stageThreshold>
      <weakClassifiers>
        <_>
          <internalNodes>
            0 -1 50 -3.5050831735134125e-02</internalNodes>
          <leafValues>
            6.0655736923217773e-01 -1.0914454609155655e-01</leafValues></_>
        <_>
          <internalNodes>
            0 -1 121 -1.4238369464874268e-01</internalNodes>
          <leafValues>
            4.2492669820785522e-01 -1.5807142853736877e-01</leafValues></_>
        <_>
          <internalNodes>
            0 -1 219 2.7386997826397419e-03</internalNodes>
          <leafValues>
            -1.7660626769065857e-01 4.6859869360923767e-01</leafValues></_>
        <_>
          <internalNodes>
            0 -1 271 2.5635529309511185e-03</internalNodes>
          <leafValues>
            1.0518842935562134e-01 -8.3520728349685669e-01</leafValues></_>
        <_>
          <internalNodes>
            0 -1 207 6.0106706805527210e-03</internalNodes>
          <leafValues>
            -1.8716058135032654e-01 4.1628265380859375e-01</leafValues></_>
        <_>
          <internalNodes>
            0 -1 157 1.2995006144046783e-01</internalNodes>
          <leafValues>
            -3.0647543072700500e-01 3.0786231160163879e-01</leafValues></_>
        <_>
          <internalNodes>
            0 -1 344 -6.2828237423673272e-04</internalNodes>
          <leafValues>
            1.9211253523826599e-01 -3.8180127739906311e-01</leafValues></_>
        <_>
          <internalNodes>
            0 -1 307 -4.7858874313533306e-03</internalNodes>
          <leafValues>
            -2.4160428345203400e-01 3.3595547080039978e-01</leafValues></_>
        <_>
          <internalNodes>
            0 -1 80 1.1841404484584928e-03</internalNodes>
          <leafValues>
            -2.3094330728054047e-01 3.6449217796325684e-01</leafValues></_>
        <_>
          <internalNodes>
            0 -1 372 7.6375273056328297e-04</internalNodes>
          <leafValues>
            1.2278454750776291e-01 -6.7859131097793579e-01</leafValues></_>
        <_>
          <internalNodes>
            0 -1 390 9.3596279621124268e-03</internalNodes>
          <leafValues>
            -1.1607835441827774e-01 7.4995100498199463e-01</leafValues></_>
        <_>
          <internalNodes>
            0 -1 404 -6.3979271799325943e-03</internalNodes>
          <leafValues>
            4.4387835264205933e-01 -1.6267082095146179e-01</leafValues></_>
        <_>
          <internalNodes>
            0 -1 149 1.9838631153106689e-02</internalNodes>
          <leafValues>
            -1.2719981372356415e-01 6.5405774116516113e-01</leafValues></_>
        <_>
          <internalNodes>
            0 -1 249 3.9576245471835136e-03</internalNodes>
          <leafValues>
            1.3374763727188110e-01 -7.5651103258132935e-01</leafValues></_>
        <_>
          <internalNodes>
            0 -1 270 4.1426625102758408e-03</internalNodes>
          <leafValues>
            -1.2321849167346954e-01 7.2868955135345459e-01</leafValues></_>
        <_>
          <internalNodes>
            0 -1 102 1.2652515433728695e-02</internalNodes>
          <leafValues>
            -1.8316090106964111e-01 4.5267841219902039e-01</leafValues></_>
        <_>
          <internalNodes>
            0 -1 159 -2.6615120470523834e-02</internalNodes>
          <leafValues>
            -8.2192271947860718e-01 1.0614472627639771e-01</leafValues></_></weakClassifiers></_>
    <!-- stage 24 -->
    <_>
      <maxWeakCount>15</maxWeakCount>
      <stageThreshold>-7.6350402832031250e-01</stageThreshold>
      <weakClassifiers>
        <_>
          <internalNodes>
            0 -1 328 1.0075661353766918e-02</internalNodes>
          <leafValues>
            -1.4920635521411896e-01 5.5294120311737061e-01</leafValues></_>
        <_>
          <internalNodes>
            0 -1 101 4.2230188846588135e-02</internalNodes>
          <leafValues>
            -8.6851105093955994e-02 8.3179724216461182e-01</leafValues></_>
        <_>
          <internalNodes>
            0 -1 313 -8.4166172891855240e-03</internalNodes>
          <leafValues>
            6.9328624010086060e-01 -1.6262628138065338e-01</leafValues></_>
        <_>
          <internalNodes>
            0 -1 409 5.4603855824097991e-04</internalNodes>
          <leafValues>
            2.1587733924388885e-01 -4.4493478536605835e-01</leafValues></_>
        <_>
          <internalNodes>
            0 -1 367 -4.9738250672817230e-03</internalNodes>
          <leafValues>
            -9.0035390853881836e-01 8.7838903069496155e-02</leafValues></_>
        <_>
          <internalNodes>
            0 -1 241 8.2353223115205765e-03</internalNodes>
          <leafValues>
            -9.5415420830249786e-02 8.4581142663955688e-01</leafValues></_>
        <_>
          <internalNodes>
            0 -1 312 2.1984111517667770e-03</internalNodes>
          <leafValues>
            9.4146601855754852e-02 -8.8992923498153687e-01</leafValues></_>
        <_>
          <internalNodes>
            0 -1 230 -4.8554339446127415e-03</internalNodes>
          <leafValues>
            6.7680716514587402e-01 -1.2367051839828491e-01</leafValues></_>
        <_>
          <internalNodes>
            0 -1 252 -2.3958261590451002e-03</internalNodes>
          <leafValues>
            -6.7622894048690796e-01 1.3422158360481262e-01</leafValues></_>
        <_>
          <internalNodes>
            0 -1 4 -3.9711561053991318e-02</internalNodes>
          <leafValues>
            -2.5824254751205444e-01 3.7227132916450500e-01</leafValues></_>
        <_>
          <internalNodes>
            0 -1 117 -7.9611397814005613e-04</internalNodes>
          <leafValues>
            4.8083317279815674e-01 -2.1010598540306091e-01</leafValues></_>
        <_>
          <internalNodes>
            0 -1 365 6.3439283985644579e-04</internalNodes>
          <leafValues>
            -2.2222244739532471e-01 4.6623411774635315e-01</leafValues></_>
        <_>
          <internalNodes>
            0 -1 370 -1.3899512123316526e-03</internalNodes>
          <leafValues>
            6.7236804962158203e-01 -1.3520295917987823e-01</leafValues></_>
        <_>
          <internalNodes>
            0 -1 81 -2.7372783422470093e-01</internalNodes>
          <leafValues>
            1.9578766822814941e-01 -5.2441602945327759e-01</leafValues></_>
        <_>
          <internalNodes>
            0 -1 417 -6.0658389702439308e-04</internalNodes>
          <leafValues>
            -6.7834639549255371e-01 1.1164467036724091e-01</leafValues></_></weakClassifiers></_>
    <!-- stage 25 -->
    <_>
      <maxWeakCount>17</maxWeakCount>
      <stageThreshold>-7.6005709171295166e-01</stageThreshold>
      <weakClassifiers>
        <_>
          <internalNodes>
            0 -1 150 -4.0139937773346901e-03</internalNodes>
          <leafValues>
            2.2222222387790680e-01 -3.7837839126586914e-01</leafValues></_>
        <_>
          <internalNodes>
            0 -1 295 5.1801167428493500e-03</internalNodes>
          <leafValues>
            -1.8436016142368317e-01 3.6607131361961365e-01</leafValues></_>
        <_>
          <internalNodes>
            0 -1 107 -1.2166754901409149e-01</internalNodes>
          <leafValues>
            -5.9345597028732300e-01 1.3669809699058533e-01</leafValues></_>
        <_>
          <internalNodes>
            0 -1 386 3.5811570705845952e-04</internalNodes>
          <leafValues>
            -2.4632927775382996e-01 2.6882010698318481e-01</leafValues></_>
        <_>
          <internalNodes>
            0 -1 284 -2.7018920518457890e-03</internalNodes>
          <leafValues>
            -6.0460150241851807e-01 1.1183419823646545e-01</leafValues></_>
        <_>
          <internalNodes>
            0 -1 258 -3.2994102220982313e-03</internalNodes>
          <leafValues>
            4.2951267957687378e-01 -1.9448128342628479e-01</leafValues></_>
        <_>
          <internalNodes>
            0 -1 79 -4.7330308705568314e-02</internalNodes>
          <leafValues>
            3.9091417193412781e-01 -2.2574740648269653e-01</leafValues></_>
        <_>
          <internalNodes>
            0 -1 246 -2.3652991279959679e-02</internalNodes>
          <leafValues>
            -7.5072538852691650e-01 1.6828119754791260e-01</leafValues></_>
        <_>
          <internalNodes>
            0 -1 211 6.5110917203128338e-03</internalNodes>
          <leafValues>
            -2.0860460400581360e-01 4.5783692598342896e-01</leafValues></_>
        <_>
          <internalNodes>
            0 -1 132 9.6239324193447828e-04</internalNodes>
          <leafValues>
            8.2109794020652771e-02 -7.7944052219390869e-01</leafValues></_>
        <_>
          <internalNodes>
            0 -1 18 -9.7770914435386658e-02</internalNodes>
          <leafValues>
            2.2883629798889160e-01 -3.7020441889762878e-01</leafValues></_>
        <_>
          <internalNodes>
            0 -1 61 3.0081542208790779e-03</internalNodes>
          <leafValues>
            1.6001199185848236e-01 -5.3066629171371460e-01</leafValues></_>
        <_>
          <internalNodes>
            0 -1 267 -3.9596136775799096e-04</internalNodes>
          <leafValues>
            4.1687417030334473e-01 -2.1318596601486206e-01</leafValues></_>
        <_>
          <internalNodes>
            0 -1 341 -4.9353232607245445e-03</internalNodes>
          <leafValues>
            4.8556602001190186e-01 -1.4405156672000885e-01</leafValues></_>
        <_>
          <internalNodes>
            0 -1 414 2.4211134586948901e-04</internalNodes>
          <leafValues>
            1.6450120508670807e-01 -4.9278891086578369e-01</leafValues></_>
        <_>
          <internalNodes>
            0 -1 87 1.3328369241207838e-03</internalNodes>
          <leafValues>
            -2.0490126311779022e-01 4.3092280626296997e-01</leafValues></_>
        <_>
          <internalNodes>
            0 -1 351 1.0431632399559021e-03</internalNodes>
          <leafValues>
            -1.8719254434108734e-01 4.5404374599456787e-01</leafValues></_></weakClassifiers></_>
    <!-- stage 26 -->
    <_>
      <maxWeakCount>18</maxWeakCount>
      <stageThreshold>-7.7024757862091064e-01</stageThreshold>
      <weakClassifiers>
        <_>
          <internalNodes>
            0 -1 292 4.1126804426312447e-03</internalNodes>
          <leafValues>
            -1.5483871102333069e-01 5.3333336114883423e-01</leafValues></_>
        <_>
          <internalNodes>
            0 -1 277 -1.6795720439404249e-03</internalNodes>
          <leafValues>
            3.7988737225532532e-01 -2.2408084571361542e-01</leafValues></_>
        <_>
          <internalNodes>
            0 -1 86 2.9705613851547241e-03</internalNodes>
          <leafValues>
            -2.1424853801727295e-01 4.2719060182571411e-01</leafValues></_>
        <_>
          <internalNodes>
            0 -1 280 -2.6523314416408539e-02</internalNodes>
          <leafValues>
            -8.7201720476150513e-01 1.0196398198604584e-01</leafValues></_>
        <_>
          <internalNodes>
            0 -1 9 1.6928397119045258e-02</internalNodes>
          <leafValues>
            -2.0672947168350220e-01 4.2976090312004089e-01</leafValues></_>
        <_>
          <internalNodes>
            0 -1 212 -9.7215035930275917e-04</internalNodes>
          <leafValues>
            3.4602189064025879e-01 -2.3814317584037781e-01</leafValues></_>
        <_>
          <internalNodes>
            0 -1 371 1.8313527107238770e-03</internalNodes>
          <leafValues>
            1.0063168406486511e-01 -7.5664269924163818e-01</leafValues></_>
        <_>
          <internalNodes>
            0 -1 366 8.8628591038286686e-04</internalNodes>
          <leafValues>
            -2.0509292185306549e-01 3.4487134218215942e-01</leafValues></_>
        <_>
          <internalNodes>
            0 -1 220 -9.1200126335024834e-03</internalNodes>
          <leafValues>
            -1.4112049341201782e-01 6.5955871343612671e-01</leafValues></_>
        <_>
          <internalNodes>
            0 -1 324 1.4790764544159174e-04</internalNodes>
          <leafValues>
            -2.3012112081050873e-01 3.9374062418937683e-01</leafValues></_>
        <_>
          <internalNodes>
            0 -1 55 -3.1668017618358135e-04</internalNodes>
          <leafValues>
            4.1259524226188660e-01 -2.0641399919986725e-01</leafValues></_>
        <_>
          <internalNodes>
            0 -1 110 2.6527908630669117e-03</internalNodes>
          <leafValues>
            -1.7186608910560608e-01 5.5225312709808350e-01</leafValues></_>
        <_>
          <internalNodes>
            0 -1 291 -3.2646610634401441e-04</internalNodes>
          <leafValues>
            4.0936556458473206e-01 -2.2968649864196777e-01</leafValues></_>
        <_>
          <internalNodes>
            0 -1 8 -3.8253366947174072e-02</internalNodes>
          <leafValues>
            -4.5975914597511292e-01 1.9328294694423676e-01</leafValues></_>
        <_>
          <internalNodes>
            0 -1 39 4.5813947916030884e-02</internalNodes>
          <leafValues>
            -1.5024387836456299e-01 6.1782050132751465e-01</leafValues></_>
        <_>
          <internalNodes>
            0 -1 32 -8.0583541421219707e-04</internalNodes>
          <leafValues>
            -7.5689864158630371e-01 1.2912850081920624e-01</leafValues></_>
        <_>
          <internalNodes>
            0 -1 122 -6.6245175898075104e-02</internalNodes>
          <leafValues>
            2.7097025513648987e-01 -3.3245497941970825e-01</leafValues></_>
        <_>
          <internalNodes>
            0 -1 168 9.7712809219956398e-03</internalNodes>
          <leafValues>
            -1.4240574836730957e-01 7.5240761041641235e-01</leafValues></_></weakClassifiers></_>
    <!-- stage 27 -->
    <_>
      <maxWeakCount>14</maxWeakCount>
      <stageThreshold>-6.9868367910385132e-01</stageThreshold>
      <weakClassifiers>
        <_>
          <internalNodes>
            0 -1 337 -2.6617650873959064e-03</internalNodes>
          <leafValues>
            5.0000000000000000e-01 -1.5789473056793213e-01</leafValues></_>
        <_>
          <internalNodes>
            0 -1 179 1.4323207736015320e-01</internalNodes>
          <leafValues>
            -9.9705137312412262e-02 7.5790113210678101e-01</leafValues></_>
        <_>
          <internalNodes>
            0 -1 42 1.1725159361958504e-02</internalNodes>
          <leafValues>
            -1.6474236547946930e-01 5.5141931772232056e-01</leafValues></_>
        <_>
          <internalNodes>
            0 -1 46 3.8255669642239809e-03</internalNodes>
          <leafValues>
            -1.3800755143165588e-01 6.6787850856781006e-01</leafValues></_>
        <_>
          <internalNodes>
            0 -1 182 1.2380303815007210e-02</internalNodes>
          <leafValues>
            1.3856272399425507e-01 -7.6344627141952515e-01</leafValues></_>
        <_>
          <internalNodes>
            0 -1 274 3.4030457027256489e-03</internalNodes>
          <leafValues>
            -2.1967288851737976e-01 4.1471105813980103e-01</leafValues></_>
        <_>
          <internalNodes>
            0 -1 134 4.6393901109695435e-02</internalNodes>
          <leafValues>
            1.2927137315273285e-01 -5.8293437957763672e-01</leafValues></_>
        <_>
          <internalNodes>
            0 -1 90 8.2919662818312645e-03</internalNodes>
          <leafValues>
            2.0301283895969391e-01 -6.0602319240570068e-01</leafValues></_>
        <_>
          <internalNodes>
            0 -1 303 -6.8578002974390984e-03</internalNodes>
          <leafValues>
            2.8211694955825806e-01 -3.2005944848060608e-01</leafValues></_>
        <_>
          <internalNodes>
            0 -1 413 -5.1302267820574343e-05</internalNodes>
          <leafValues>
            -4.8124089837074280e-01 1.8370519578456879e-01</leafValues></_>
        <_>
          <internalNodes>
            0 -1 263 -1.7515674699097872e-03</internalNodes>
          <leafValues>
            5.1181805133819580e-01 -1.8861027061939240e-01</leafValues></_>
        <_>
          <internalNodes>
            0 -1 334 -9.4997175037860870e-03</internalNodes>
          <leafValues>
            9.0806072950363159e-01 -1.1116535961627960e-01</leafValues></_>
        <_>
          <internalNodes>
            0 -1 77 -4.0976563468575478e-03</internalNodes>
          <leafValues>
            -9.2017757892608643e-01 1.3097906112670898e-01</leafValues></_>
        <_>
          <internalNodes>
            0 -1 199 -5.8645382523536682e-03</internalNodes>
          <leafValues>
            -7.1733194589614868e-01 8.7020270526409149e-02</leafValues></_></weakClassifiers></_>
    <!-- stage 28 -->
    <_>
      <maxWeakCount>16</maxWeakCount>
      <stageThreshold>-7.9066473245620728e-01</stageThreshold>
      <weakClassifiers>
        <_>
          <internalNodes>
            0 -1 138 5.0117019563913345e-03</internalNodes>
          <leafValues>
            -1.0979228466749191e-01 5.8730161190032959e-01</leafValues></_>
        <_>
          <internalNodes>
            0 -1 143 3.1115613877773285e-02</internalNodes>
          <leafValues>
            1.6425856947898865e-01 -4.3530595302581787e-01</leafValues></_>
        <_>
          <internalNodes>
            0 -1 13 2.9302829504013062e-01</internalNodes>
          <leafValues>
            -1.9356608390808105e-01 5.2417933940887451e-01</leafValues></_>
        <_>
          <internalNodes>
            0 -1 343 -3.4146279096603394e-02</internalNodes>
          <leafValues>
            4.9288615584373474e-01 -9.5294669270515442e-02</leafValues></_>
        <_>
          <internalNodes>
            0 -1 300 -1.3591244351118803e-03</internalNodes>
          <leafValues>
            6.1770689487457275e-01 -1.4464469254016876e-01</leafValues></_>
        <_>
          <internalNodes>
            0 -1 25 7.6772486791014671e-03</internalNodes>
          <leafValues>
            -1.0302332788705826e-01 6.3819992542266846e-01</leafValues></_>
        <_>
          <internalNodes>
            0 -1 264 -1.4052322134375572e-02</internalNodes>
          <leafValues>
            5.9196829795837402e-01 -8.3353422582149506e-02</leafValues></_>
        <_>
          <internalNodes>
            0 -1 269 -1.3914667069911957e-02</internalNodes>
          <leafValues>
            7.2334998846054077e-01 -1.3050819933414459e-01</leafValues></_>
        <_>
          <internalNodes>
            0 -1 185 4.5671998523175716e-03</internalNodes>
          <leafValues>
            -2.0683763921260834e-01 3.4653276205062866e-01</leafValues></_>
        <_>
          <internalNodes>
            0 -1 223 8.8993869721889496e-02</internalNodes>
          <leafValues>
            -1.0455098003149033e-01 7.6482981443405151e-01</leafValues></_>
        <_>
          <internalNodes>
            0 -1 56 3.1089343130588531e-02</internalNodes>
          <leafValues>
            1.2783744931221008e-01 -7.6687508821487427e-01</leafValues></_>
        <_>
          <internalNodes>
            0 -1 408 -1.8189991533290595e-04</internalNodes>
          <leafValues>
            -2.4008361995220184e-01 3.2340162992477417e-01</leafValues></_>
        <_>
          <internalNodes>
            0 -1 186 -1.1634333059191704e-02</internalNodes>
          <leafValues>
            6.9059389829635620e-01 -1.2578381597995758e-01</leafValues></_>
        <_>
          <internalNodes>
            0 -1 288 1.9150765147060156e-03</internalNodes>
          <leafValues>
            1.0748584568500519e-01 -7.4879616498947144e-01</leafValues></_>
        <_>
          <internalNodes>
            0 -1 155 6.6700056195259094e-02</internalNodes>
          <leafValues>
            -1.8917073309421539e-01 4.2417028546333313e-01</leafValues></_>
        <_>
          <internalNodes>
            0 -1 253 -5.3086364641785622e-03</internalNodes>
          <leafValues>
            -3.1749531626701355e-01 3.2953608036041260e-01</leafValues></_></weakClassifiers></_>
    <!-- stage 29 -->
    <_>
      <maxWeakCount>13</maxWeakCount>
      <stageThreshold>-5.1558101177215576e-01</stageThreshold>
      <weakClassifiers>
        <_>
          <internalNodes>
            0 -1 348 4.8877517692744732e-03</internalNodes>
          <leafValues>
            -1.2166172266006470e-01 6.5079367160797119e-01</leafValues></_>
        <_>
          <internalNodes>
            0 -1 194 6.8213611841201782e-02</internalNodes>
          <leafValues>
            -1.0756962746381760e-01 6.5515643358230591e-01</leafValues></_>
        <_>
          <internalNodes>
            0 -1 329 -9.3708082567900419e-04</internalNodes>
          <leafValues>
            3.2152247428894043e-01 -2.6391398906707764e-01</leafValues></_>
        <_>
          <internalNodes>
            0 -1 360 1.5904583269730210e-03</internalNodes>
          <leafValues>
            -2.4452039599418640e-01 3.4967344999313354e-01</leafValues></_>
        <_>
          <internalNodes>
            0 -1 398 1.0003432631492615e-02</internalNodes>
          <leafValues>
            1.4517383277416229e-01 -7.2154080867767334e-01</leafValues></_>
        <_>
          <internalNodes>
            0 -1 36 -3.9114835090003908e-04</internalNodes>
          <leafValues>
            -7.1607929468154907e-01 1.3064153492450714e-01</leafValues></_>
        <_>
          <internalNodes>
            0 -1 115 7.8478651121258736e-03</internalNodes>
          <leafValues>
            -1.8831150233745575e-01 4.2638537287712097e-01</leafValues></_>
        <_>
          <internalNodes>
            0 -1 205 -2.5924678891897202e-02</internalNodes>
          <leafValues>
            4.7187882661819458e-01 -2.7275580167770386e-01</leafValues></_>
        <_>
          <internalNodes>
            0 -1 383 -2.3746965453028679e-03</internalNodes>
          <leafValues>
            -7.4785292148590088e-01 1.5710327029228210e-01</leafValues></_>
        <_>
          <internalNodes>
            0 -1 306 2.5360696017742157e-03</internalNodes>
          <leafValues>
            -2.0084327459335327e-01 5.3735691308975220e-01</leafValues></_>
        <_>
          <internalNodes>
            0 -1 317 1.1538350372575223e-04</internalNodes>
          <leafValues>
            -2.5677734613418579e-01 3.1778302788734436e-01</leafValues></_>
        <_>
          <internalNodes>
            0 -1 11 1.1393620073795319e-01</internalNodes>
          <leafValues>
            -1.5739235281944275e-01 6.0717821121215820e-01</leafValues></_>
        <_>
          <internalNodes>
            0 -1 12 -5.2969988435506821e-02</internalNodes>
          <leafValues>
            5.5433773994445801e-01 -1.5406233072280884e-01</leafValues></_></weakClassifiers></_>
    <!-- stage 30 -->
    <_>
      <maxWeakCount>13</maxWeakCount>
      <stageThreshold>-6.2525397539138794e-01</stageThreshold>
      <weakClassifiers>
        <_>
          <internalNodes>
            0 -1 91 -3.3232634887099266e-03</internalNodes>
          <leafValues>
            8.2222223281860352e-01 -1.0422535240650177e-01</leafValues></_>
        <_>
          <internalNodes>
            0 -1 184 -4.0060449391603470e-03</internalNodes>
          <leafValues>
            -6.0508531332015991e-01 1.6595743596553802e-01</leafValues></_>
        <_>
          <internalNodes>
            0 -1 233 8.9931041002273560e-03</internalNodes>
          <leafValues>
            -8.8405475020408630e-02 8.6724835634231567e-01</leafValues></_>
        <_>
          <internalNodes>
            0 -1 375 3.2107084989547729e-03</internalNodes>
          <leafValues>
            1.1591064929962158e-01 -9.1942161321640015e-01</leafValues></_>
        <_>
          <internalNodes>
            0 -1 289 1.4592894331144635e-05</internalNodes>
          <leafValues>
            -2.9255673289299011e-01 2.8183707594871521e-01</leafValues></_>
        <_>
          <internalNodes>
            0 -1 215 -1.2668602168560028e-02</internalNodes>
          <leafValues>
            7.7551561594009399e-01 -9.6113801002502441e-02</leafValues></_>
        <_>
          <internalNodes>
            0 -1 218 -1.6980157233774662e-03</internalNodes>
          <leafValues>
            -7.3665440082550049e-01 1.2015885114669800e-01</leafValues></_>
        <_>
          <internalNodes>
            0 -1 245 -5.7277465239167213e-03</internalNodes>
          <leafValues>
            -6.7597651481628418e-01 1.1997906863689423e-01</leafValues></_>
        <_>
          <internalNodes>
            0 -1 282 -1.0242400690913200e-02</internalNodes>
          <leafValues>
            7.7436268329620361e-01 -1.2363782525062561e-01</leafValues></_>
        <_>
          <internalNodes>
            0 -1 120 -6.4074054360389709e-02</internalNodes>
          <leafValues>
            -1.1404374986886978e-01 7.8356534242630005e-01</leafValues></_>
        <_>
          <internalNodes>
            0 -1 299 4.2231092229485512e-03</internalNodes>
          <leafValues>
            -1.7089197039604187e-01 4.4190475344657898e-01</leafValues></_>
        <_>
          <internalNodes>
            0 -1 47 4.5932298526167870e-03</internalNodes>
          <leafValues>
            -1.0970238596200943e-01 7.6562786102294922e-01</leafValues></_>
        <_>
          <internalNodes>
            0 -1 51 3.1937267631292343e-03</internalNodes>
          <leafValues>
            1.4896629750728607e-01 -5.8977872133255005e-01</leafValues></_></weakClassifiers></_>
    <!-- stage 31 -->
    <_>
      <maxWeakCount>15</maxWeakCount>
      <stageThreshold>-8.1023019552230835e-01</stageThreshold>
      <weakClassifiers>
        <_>
          <internalNodes>
            0 -1 403 -2.9776040464639664e-03</internalNodes>
          <leafValues>
            3.2584270834922791e-01 -2.6126125454902649e-01</leafValues></_>
        <_>
          <internalNodes>
            0 -1 287 -9.9642318673431873e-04</internalNodes>
          <leafValues>
            4.8657354712486267e-01 -1.5630646049976349e-01</leafValues></_>
        <_>
          <internalNodes>
            0 -1 204 1.8951134756207466e-02</internalNodes>
          <leafValues>
            2.8425672650337219e-01 -2.9234439134597778e-01</leafValues></_>
        <_>
          <internalNodes>
            0 -1 53 -2.4231001734733582e-02</internalNodes>
          <leafValues>
            7.6933544874191284e-01 -1.3682585954666138e-01</leafValues></_>
        <_>
          <internalNodes>
            0 -1 3 -2.8997199609875679e-02</internalNodes>
          <leafValues>
            -1.7531034350395203e-01 4.6357420086860657e-01</leafValues></_>
        <_>
          <internalNodes>
            0 -1 190 1.2175333686172962e-03</internalNodes>
          <leafValues>
            1.3163934648036957e-01 -7.4290806055068970e-01</leafValues></_>
        <_>
          <internalNodes>
            0 -1 187 -1.3819788582623005e-03</internalNodes>
          <leafValues>
            5.4788416624069214e-01 -1.4753708243370056e-01</leafValues></_>
        <_>
          <internalNodes>
            0 -1 216 -5.9323731809854507e-02</internalNodes>
          <leafValues>
            4.4276005029678345e-01 -1.7952860891819000e-01</leafValues></_>
        <_>
          <internalNodes>
            0 -1 319 -2.0016261842101812e-03</internalNodes>
          <leafValues>
            4.4161671400070190e-01 -1.8623602390289307e-01</leafValues></_>
        <_>
          <internalNodes>
            0 -1 395 -2.7389379683881998e-03</internalNodes>
          <leafValues>
            6.0188537836074829e-01 -1.1484520137310028e-01</leafValues></_>
        <_>
          <internalNodes>
            0 -1 369 -4.7534788027405739e-03</internalNodes>
          <leafValues>
            -7.5798481702804565e-01 1.1192190647125244e-01</leafValues></_>
        <_>
          <internalNodes>
            0 -1 338 1.4681380707770586e-03</internalNodes>
          <leafValues>
            -1.3151068985462189e-01 6.8887192010879517e-01</leafValues></_>
        <_>
          <internalNodes>
            0 -1 279 1.2334745842963457e-03</internalNodes>
          <leafValues>
            -1.8842014670372009e-01 4.9875423312187195e-01</leafValues></_>
        <_>
          <internalNodes>
            0 -1 332 4.0157468902179971e-05</internalNodes>
          <leafValues>
            -2.6781615614891052e-01 3.0940401554107666e-01</leafValues></_>
        <_>
          <internalNodes>
            0 -1 260 1.9067556131631136e-03</internalNodes>
          <leafValues>
            2.0485694706439972e-01 -4.7318029403686523e-01</leafValues></_></weakClassifiers></_></stages>
  <features>
    <_>
      <rects>
        <_>
          0 0 2 23 -1.</_>
        <_>
          1 0 1 23 2.</_></rects>
      <tilted>0</tilted></_>
    <_>
      <rects>
        <_>
          0 0 4 4 -1.</_>
        <_>
          0 0 2 2 2.</_>
        <_>
          2 2 2 2 2.</_></rects>
      <tilted>0</tilted></_>
    <_>
      <rects>
        <_>
          0 0 10 1 -1.</_>
        <_>
          5 0 5 1 2.</_></rects>
      <tilted>0</tilted></_>
    <_>
      <rects>
        <_>
          0 0 8 3 -1.</_>
        <_>
          0 1 8 1 2.</_></rects>
      <tilted>0</tilted></_>
    <_>
      <rects>
        <_>
          0 0 9 3 -1.</_>
        <_>
          0 1 9 1 2.</_></rects>
      <tilted>0</tilted></_>
    <_>
      <rects>
        <_>
          0 0 24 2 -1.</_>
        <_>
          0 1 24 1 2.</_></rects>
      <tilted>0</tilted></_>
    <_>
      <rects>
        <_>
          0 1 4 14 -1.</_>
        <_>
          0 1 2 7 2.</_>
        <_>
          2 8 2 7 2.</_></rects>
      <tilted>0</tilted></_>
    <_>
      <rects>
        <_>
          0 1 6 1 -1.</_>
        <_>
          3 1 3 1 2.</_></rects>
      <tilted>0</tilted></_>
    <_>
      <rects>
        <_>
          0 1 16 8 -1.</_>
        <_>
          8 1 8 8 2.</_></rects>
      <tilted>0</tilted></_>
    <_>
      <rects>
        <_>
          0 2 4 20 -1.</_>
        <_>
          2 2 2 20 2.</_></rects>
      <tilted>0</tilted></_>
    <_>
      <rects>
        <_>
          0 2 6 14 -1.</_>
        <_>
          0 2 3 7 2.</_>
        <_>
          3 9 3 7 2.</_></rects>
      <tilted>0</tilted></_>
    <_>
      <rects>
        <_>
          0 2 12 16 -1.</_>
        <_>
          6 2 6 16 2.</_></rects>
      <tilted>0</tilted></_>
    <_>
      <rects>
        <_>
          0 2 14 16 -1.</_>
        <_>
          7 2 7 16 2.</_></rects>
      <tilted>0</tilted></_>
    <_>
      <rects>
        <_>
          0 2 24 22 -1.</_>
        <_>
          12 2 12 22 2.</_></rects>
      <tilted>0</tilted></_>
    <_>
      <rects>
        <_>
          0 3 4 3 -1.</_>
        <_>
          2 3 2 3 2.</_></rects>
      <tilted>0</tilted></_>
    <_>
      <rects>
        <_>
          0 3 24 4 -1.</_>
        <_>
          0 5 24 2 2.</_></rects>
      <tilted>0</tilted></_>
    <_>
      <rects>
        <_>
          0 4 20 2 -1.</_>
        <_>
          0 5 20 1 2.</_></rects>
      <tilted>0</tilted></_>
    <_>
      <rects>
        <_>
          0 5 2 13 -1.</_>
        <_>
          1 5 1 13 2.</_></rects>
      <tilted>0</tilted></_>
    <_>
      <rects>
        <_>
          0 5 3 17 -1.</_>
        <_>
          1 5 1 17 2.</_></rects>
      <tilted>0</tilted></_>
    <_>
      <rects>
        <_>
          0 5 4 2 -1.</_>
        <_>
          0 6 4 1 2.</_></rects>
      <tilted>0</tilted></_>
    <_>
      <rects>
        <_>
          0 5 16 2 -1.</_>
        <_>
          0 5 8 1 2.</_>
        <_>
          8 6 8 1 2.</_></rects>
      <tilted>0</tilted></_>
    <_>
      <rects>
        <_>
          0 5 24 18 -1.</_>
        <_>
          0 5 12 9 2.</_>
        <_>
          12 14 12 9 2.</_></rects>
      <tilted>0</tilted></_>
    <_>
      <rects>
        <_>
          0 6 4 9 -1.</_>
        <_>
          2 6 2 9 2.</_></rects>
      <tilted>0</tilted></_>
    <_>
      <rects>
        <_>
          0 6 24 9 -1.</_>
        <_>
          12 6 12 9 2.</_></rects>
      <tilted>0</tilted></_>
    <_>
      <rects>
        <_>
          0 6 24 18 -1.</_>
        <_>
          0 6 12 9 2.</_>
        <_>
          12 15 12 9 2.</_></rects>
      <tilted>0</tilted></_>
    <_>
      <rects>
        <_>
          0 8 4 6 -1.</_>
        <_>
          0 8 2 3 2.</_>
        <_>
          2 11 2 3 2.</_></rects>
      <tilted>0</tilted></_>
    <_>
      <rects>
        <_>
          0 9 8 2 -1.</_>
        <_>
          0 10 8 1 2.</_></rects>
      <tilted>0</tilted></_>
    <_>
      <rects>
        <_>
          0 9 24 14 -1.</_>
        <_>
          12 9 12 14 2.</_></rects>
      <tilted>0</tilted></_>
    <_>
      <rects>
        <_>
          0 9 18 2 -1.</_>
        <_>
          0 10 18 1 2.</_></rects>
      <tilted>0</tilted></_>
    <_>
      <rects>
        <_>
          0 11 8 1 -1.</_>
        <_>
          4 11 4 1 2.</_></rects>
      <tilted>0</tilted></_>
    <_>
      <rects>
        <_>
          0 13 1 2 -1.</_>
        <_>
          0 14 1 1 2.</_></rects>
      <tilted>0</tilted></_>
    <_>
      <rects>
        <_>
          0 13 1 6 -1.</_>
        <_>
          0 16 1 3 2.</_></rects>
      <tilted>0</tilted></_>
    <_>
      <rects>
        <_>
          0 15 1 2 -1.</_>
        <_>
          0 16 1 1 2.</_></rects>
      <tilted>0</tilted></_>
    <_>
      <rects>
        <_>
          0 16 1 2 -1.</_>
        <_>
          0 17 1 1 2.</_></rects>
      <tilted>0</tilted></_>
    <_>
      <rects>
        <_>
          0 17 2 4 -1.</_>
        <_>
          0 19 2 2 2.</_></rects>
      <tilted>0</tilted></_>
    <_>
      <rects>
        <_>
          0 17 2 6 -1.</_>
        <_>
          0 20 2 3 2.</_></rects>
      <tilted>0</tilted></_>
    <_>
      <rects>
        <_>
          0 18 1 2 -1.</_>
        <_>
          0 19 1 1 2.</_></rects>
      <tilted>0</tilted></_>
    <_>
      <rects>
        <_>
          0 20 15 4 -1.</_>
        <_>
          0 22 15 2 2.</_></rects>
      <tilted>0</tilted></_>
    <_>
      <rects>
        <_>
          0 20 19 4 -1.</_>
        <_>
          0 22 19 2 2.</_></rects>
      <tilted>0</tilted></_>
    <_>
      <rects>
        <_>
          0 21 18 2 -1.</_>
        <_>
          9 21 9 2 2.</_></rects>
      <tilted>0</tilted></_>
    <_>
      <rects>
        <_>
          0 21 18 2 -1.</_>
        <_>
          0 22 18 1 2.</_></rects>
      <tilted>0</tilted></_>
    <_>
      <rects>
        <_>
          0 22 18 2 -1.</_>
        <_>
          0 22 9 1 2.</_>
        <_>
          9 23 9 1 2.</_></rects>
      <tilted>0</tilted></_>
    <_>
      <rects>
        <_>
          0 22 22 2 -1.</_>
        <_>
          0 22 11 1 2.</_>
        <_>
          11 23 11 1 2.</_></rects>
      <tilted>0</tilted></_>
    <_>
      <rects>
        <_>
          0 22 23 2 -1.</_>
        <_>
          0 23 23 1 2.</_></rects>
      <tilted>0</tilted></_>
    <_>
      <rects>
        <_>
          0 22 24 2 -1.</_>
        <_>
          0 23 24 1 2.</_></rects>
      <tilted>0</tilted></_>
    <_>
      <rects>
        <_>
          1 0 2 10 -1.</_>
        <_>
          2 0 1 10 2.</_></rects>
      <tilted>0</tilted></_>
    <_>
      <rects>
        <_>
          1 0 3 2 -1.</_>
        <_>
          1 1 3 1 2.</_></rects>
      <tilted>0</tilted></_>
    <_>
      <rects>
        <_>
          1 0 6 2 -1.</_>
        <_>
          1 0 3 1 2.</_>
        <_>
          4 1 3 1 2.</_></rects>
      <tilted>0</tilted></_>
    <_>
      <rects>
        <_>
          1 0 6 2 -1.</_>
        <_>
          4 0 3 2 2.</_></rects>
      <tilted>0</tilted></_>
    <_>
      <rects>
        <_>
          1 0 8 2 -1.</_>
        <_>
          1 1 8 1 2.</_></rects>
      <tilted>0</tilted></_>
    <_>
      <rects>
        <_>
          1 0 18 4 -1.</_>
        <_>
          1 0 9 2 2.</_>
        <_>
          10 2 9 2 2.</_></rects>
      <tilted>0</tilted></_>
    <_>
      <rects>
        <_>
          1 1 2 6 -1.</_>
        <_>
          2 1 1 6 2.</_></rects>
      <tilted>0</tilted></_>
    <_>
      <rects>
        <_>
          1 1 14 11 -1.</_>
        <_>
          8 1 7 11 2.</_></rects>
      <tilted>0</tilted></_>
    <_>
      <rects>
        <_>
          1 1 18 1 -1.</_>
        <_>
          10 1 9 1 2.</_></rects>
      <tilted>0</tilted></_>
    <_>
      <rects>
        <_>
          1 2 2 12 -1.</_>
        <_>
          1 8 2 6 2.</_></rects>
      <tilted>0</tilted></_>
    <_>
      <rects>
        <_>
          1 3 2 1 -1.</_>
        <_>
          2 3 1 1 2.</_></rects>
      <tilted>0</tilted></_>
    <_>
      <rects>
        <_>
          1 3 8 4 -1.</_>
        <_>
          5 3 4 4 2.</_></rects>
      <tilted>0</tilted></_>
    <_>
      <rects>
        <_>
          1 3 8 10 -1.</_>
        <_>
          1 3 4 5 2.</_>
        <_>
          5 8 4 5 2.</_></rects>
      <tilted>0</tilted></_>
    <_>
      <rects>
        <_>
          1 6 1 2 -1.</_>
        <_>
          1 7 1 1 2.</_></rects>
      <tilted>0</tilted></_>
    <_>
      <rects>
        <_>
          1 7 2 10 -1.</_>
        <_>
          2 7 1 10 2.</_></rects>
      <tilted>0</tilted></_>
    <_>
      <rects>
        <_>
          1 7 17 2 -1.</_>
        <_>
          1 8 17 1 2.</_></rects>
      <tilted>0</tilted></_>
    <_>
      <rects>
        <_>
          1 8 5 2 -1.</_>
        <_>
          1 9 5 1 2.</_></rects>
      <tilted>0</tilted></_>
    <_>
      <rects>
        <_>
          1 8 12 10 -1.</_>
        <_>
          1 8 6 5 2.</_>
        <_>
          7 13 6 5 2.</_></rects>
      <tilted>0</tilted></_>
    <_>
      <rects>
        <_>
          1 9 14 2 -1.</_>
        <_>
          1 10 14 1 2.</_></rects>
      <tilted>0</tilted></_>
    <_>
      <rects>
        <_>
          1 11 4 4 -1.</_>
        <_>
          1 13 4 2 2.</_></rects>
      <tilted>0</tilted></_>
    <_>
      <rects>
        <_>
          1 12 4 12 -1.</_>
        <_>
          1 12 2 6 2.</_>
        <_>
          3 18 2 6 2.</_></rects>
      <tilted>0</tilted></_>
    <_>
      <rects>
        <_>
          1 13 6 4 -1.</_>
        <_>
          1 13 3 2 2.</_>
        <_>
          4 15 3 2 2.</_></rects>
      <tilted>0</tilted></_>
    <_>
      <rects>
        <_>
          1 13 11 2 -1.</_>
        <_>
          1 14 11 1 2.</_></rects>
      <tilted>0</tilted></_>
    <_>
      <rects>
        <_>
          1 15 8 5 -1.</_>
        <_>
          5 15 4 5 2.</_></rects>
      <tilted>0</tilted></_>
    <_>
      <rects>
        <_>
          1 16 2 6 -1.</_>
        <_>
          1 19 2 3 2.</_></rects>
      <tilted>0</tilted></_>
    <_>
      <rects>
        <_>
          1 20 6 3 -1.</_>
        <_>
          4 20 3 3 2.</_></rects>
      <tilted>0</tilted></_>
    <_>
      <rects>
        <_>
          1 22 14 2 -1.</_>
        <_>
          1 22 7 1 2.</_>
        <_>
          8 23 7 1 2.</_></rects>
      <tilted>0</tilted></_>
    <_>
      <rects>
        <_>
          1 22 22 2 -1.</_>
        <_>
          1 22 11 1 2.</_>
        <_>
          12 23 11 1 2.</_></rects>
      <tilted>0</tilted></_>
    <_>
      <rects>
        <_>
          2 0 4 4 -1.</_>
        <_>
          2 0 2 2 2.</_>
        <_>
          4 2 2 2 2.</_></rects>
      <tilted>0</tilted></_>
    <_>
      <rects>
        <_>
          2 0 18 4 -1.</_>
        <_>
          2 0 9 2 2.</_>
        <_>
          11 2 9 2 2.</_></rects>
      <tilted>0</tilted></_>
    <_>
      <rects>
        <_>
          2 0 20 22 -1.</_>
        <_>
          2 0 10 11 2.</_>
        <_>
          12 11 10 11 2.</_></rects>
      <tilted>0</tilted></_>
    <_>
      <rects>
        <_>
          2 0 11 2 -1.</_>
        <_>
          2 1 11 1 2.</_></rects>
      <tilted>0</tilted></_>
    <_>
      <rects>
        <_>
          2 4 12 2 -1.</_>
        <_>
          2 5 12 1 2.</_></rects>
      <tilted>0</tilted></_>
    <_>
      <rects>
        <_>
          2 4 16 2 -1.</_>
        <_>
          2 5 16 1 2.</_></rects>
      <tilted>0</tilted></_>
    <_>
      <rects>
        <_>
          2 5 18 12 -1.</_>
        <_>
          2 5 9 6 2.</_>
        <_>
          11 11 9 6 2.</_></rects>
      <tilted>0</tilted></_>
    <_>
      <rects>
        <_>
          2 6 1 4 -1.</_>
        <_>
          2 8 1 2 2.</_></rects>
      <tilted>0</tilted></_>
    <_>
      <rects>
        <_>
          2 6 15 13 -1.</_>
        <_>
          7 6 5 13 2.</_></rects>
      <tilted>0</tilted></_>
    <_>
      <rects>
        <_>
          2 9 4 1 -1.</_>
        <_>
          4 9 2 1 2.</_></rects>
      <tilted>0</tilted></_>
    <_>
      <rects>
        <_>
          2 9 4 7 -1.</_>
        <_>
          4 9 2 7 2.</_></rects>
      <tilted>0</tilted></_>
    <_>
      <rects>
        <_>
          2 10 18 2 -1.</_>
        <_>
          2 10 9 1 2.</_>
        <_>
          11 11 9 1 2.</_></rects>
      <tilted>0</tilted></_>
    <_>
      <rects>
        <_>
          2 11 8 4 -1.</_>
        <_>
          2 11 4 2 2.</_>
        <_>
          6 13 4 2 2.</_></rects>
      <tilted>0</tilted></_>
    <_>
      <rects>
        <_>
          2 14 4 6 -1.</_>
        <_>
          2 14 2 3 2.</_>
        <_>
          4 17 2 3 2.</_></rects>
      <tilted>0</tilted></_>
    <_>
      <rects>
        <_>
          2 14 6 2 -1.</_>
        <_>
          2 14 3 1 2.</_>
        <_>
          5 15 3 1 2.</_></rects>
      <tilted>0</tilted></_>
    <_>
      <rects>
        <_>
          2 14 22 9 -1.</_>
        <_>
          13 14 11 9 2.</_></rects>
      <tilted>0</tilted></_>
    <_>
      <rects>
        <_>
          2 16 2 6 -1.</_>
        <_>
          2 19 2 3 2.</_></rects>
      <tilted>0</tilted></_>
    <_>
      <rects>
        <_>
          2 16 2 8 -1.</_>
        <_>
          2 20 2 4 2.</_></rects>
      <tilted>0</tilted></_>
    <_>
      <rects>
        <_>
          2 16 6 2 -1.</_>
        <_>
          2 16 3 1 2.</_>
        <_>
          5 17 3 1 2.</_></rects>
      <tilted>0</tilted></_>
    <_>
      <rects>
        <_>
          2 18 2 6 -1.</_>
        <_>
          2 18 1 3 2.</_>
        <_>
          3 21 1 3 2.</_></rects>
      <tilted>0</tilted></_>
    <_>
      <rects>
        <_>
          2 18 4 4 -1.</_>
        <_>
          2 20 4 2 2.</_></rects>
      <tilted>0</tilted></_>
    <_>
      <rects>
        <_>
          2 19 11 2 -1.</_>
        <_>
          2 20 11 1 2.</_></rects>
      <tilted>0</tilted></_>
    <_>
      <rects>
        <_>
          2 20 22 2 -1.</_>
        <_>
          13 20 11 2 2.</_></rects>
      <tilted>0</tilted></_>
    <_>
      <rects>
        <_>
          2 22 15 2 -1.</_>
        <_>
          2 23 15 1 2.</_></rects>
      <tilted>0</tilted></_>
    <_>
      <rects>
        <_>
          2 22 22 2 -1.</_>
        <_>
          2 23 22 1 2.</_></rects>
      <tilted>0</tilted></_>
    <_>
      <rects>
        <_>
          2 23 2 1 -1.</_>
        <_>
          3 23 1 1 2.</_></rects>
      <tilted>0</tilted></_>
    <_>
      <rects>
        <_>
          3 0 10 4 -1.</_>
        <_>
          3 0 5 2 2.</_>
        <_>
          8 2 5 2 2.</_></rects>
      <tilted>0</tilted></_>
    <_>
      <rects>
        <_>
          3 0 12 2 -1.</_>
        <_>
          3 0 6 1 2.</_>
        <_>
          9 1 6 1 2.</_></rects>
      <tilted>0</tilted></_>
    <_>
      <rects>
        <_>
          3 0 16 4 -1.</_>
        <_>
          3 0 8 2 2.</_>
        <_>
          11 2 8 2 2.</_></rects>
      <tilted>0</tilted></_>
    <_>
      <rects>
        <_>
          3 1 7 4 -1.</_>
        <_>
          3 3 7 2 2.</_></rects>
      <tilted>0</tilted></_>
    <_>
      <rects>
        <_>
          3 1 18 2 -1.</_>
        <_>
          3 2 18 1 2.</_></rects>
      <tilted>0</tilted></_>
    <_>
      <rects>
        <_>
          3 2 17 8 -1.</_>
        <_>
          3 6 17 4 2.</_></rects>
      <tilted>0</tilted></_>
    <_>
      <rects>
        <_>
          3 3 4 8 -1.</_>
        <_>
          3 3 2 4 2.</_>
        <_>
          5 7 2 4 2.</_></rects>
      <tilted>0</tilted></_>
    <_>
      <rects>
        <_>
          3 4 2 4 -1.</_>
        <_>
          3 4 1 2 2.</_>
        <_>
          4 6 1 2 2.</_></rects>
      <tilted>0</tilted></_>
    <_>
      <rects>
        <_>
          3 5 3 12 -1.</_>
        <_>
          3 9 3 4 2.</_></rects>
      <tilted>0</tilted></_>
    <_>
      <rects>
        <_>
          3 5 8 6 -1.</_>
        <_>
          3 5 4 3 2.</_>
        <_>
          7 8 4 3 2.</_></rects>
      <tilted>0</tilted></_>
    <_>
      <rects>
        <_>
          3 5 16 1 -1.</_>
        <_>
          11 5 8 1 2.</_></rects>
      <tilted>0</tilted></_>
    <_>
      <rects>
        <_>
          3 6 6 4 -1.</_>
        <_>
          3 6 3 2 2.</_>
        <_>
          6 8 3 2 2.</_></rects>
      <tilted>0</tilted></_>
    <_>
      <rects>
        <_>
          3 6 3 16 -1.</_>
        <_>
          3 14 3 8 2.</_></rects>
      <tilted>0</tilted></_>
    <_>
      <rects>
        <_>
          3 6 13 4 -1.</_>
        <_>
          3 8 13 2 2.</_></rects>
      <tilted>0</tilted></_>
    <_>
      <rects>
        <_>
          3 7 12 4 -1.</_>
        <_>
          3 7 6 2 2.</_>
        <_>
          9 9 6 2 2.</_></rects>
      <tilted>0</tilted></_>
    <_>
      <rects>
        <_>
          3 8 19 6 -1.</_>
        <_>
          3 11 19 3 2.</_></rects>
      <tilted>0</tilted></_>
    <_>
      <rects>
        <_>
          3 9 16 1 -1.</_>
        <_>
          11 9 8 1 2.</_></rects>
      <tilted>0</tilted></_>
    <_>
      <rects>
        <_>
          3 9 8 4 -1.</_>
        <_>
          3 11 8 2 2.</_></rects>
      <tilted>0</tilted></_>
    <_>
      <rects>
        <_>
          3 10 2 4 -1.</_>
        <_>
          4 10 1 4 2.</_></rects>
      <tilted>0</tilted></_>
    <_>
      <rects>
        <_>
          3 10 6 6 -1.</_>
        <_>
          3 10 3 3 2.</_>
        <_>
          6 13 3 3 2.</_></rects>
      <tilted>0</tilted></_>
    <_>
      <rects>
        <_>
          3 10 8 2 -1.</_>
        <_>
          3 11 8 1 2.</_></rects>
      <tilted>0</tilted></_>
    <_>
      <rects>
        <_>
          3 12 15 3 -1.</_>
        <_>
          8 12 5 3 2.</_></rects>
      <tilted>0</tilted></_>
    <_>
      <rects>
        <_>
          3 12 18 12 -1.</_>
        <_>
          3 18 18 6 2.</_></rects>
      <tilted>0</tilted></_>
    <_>
      <rects>
        <_>
          3 17 9 3 -1.</_>
        <_>
          3 18 9 1 2.</_></rects>
      <tilted>0</tilted></_>
    <_>
      <rects>
        <_>
          3 22 3 2 -1.</_>
        <_>
          3 23 3 1 2.</_></rects>
      <tilted>0</tilted></_>
    <_>
      <rects>
        <_>
          3 22 20 2 -1.</_>
        <_>
          3 22 10 1 2.</_>
        <_>
          13 23 10 1 2.</_></rects>
      <tilted>0</tilted></_>
    <_>
      <rects>
        <_>
          3 22 20 2 -1.</_>
        <_>
          3 23 20 1 2.</_></rects>
      <tilted>0</tilted></_>
    <_>
      <rects>
        <_>
          4 0 10 2 -1.</_>
        <_>
          4 0 5 1 2.</_>
        <_>
          9 1 5 1 2.</_></rects>
      <tilted>0</tilted></_>
    <_>
      <rects>
        <_>
          4 0 5 4 -1.</_>
        <_>
          4 2 5 2 2.</_></rects>
      <tilted>0</tilted></_>
    <_>
      <rects>
        <_>
          4 0 14 4 -1.</_>
        <_>
          4 0 7 2 2.</_>
        <_>
          11 2 7 2 2.</_></rects>
      <tilted>0</tilted></_>
    <_>
      <rects>
        <_>
          4 0 12 20 -1.</_>
        <_>
          4 10 12 10 2.</_></rects>
      <tilted>0</tilted></_>
    <_>
      <rects>
        <_>
          4 1 4 2 -1.</_>
        <_>
          4 2 4 1 2.</_></rects>
      <tilted>0</tilted></_>
    <_>
      <rects>
        <_>
          4 1 17 2 -1.</_>
        <_>
          4 2 17 1 2.</_></rects>
      <tilted>0</tilted></_>
    <_>
      <rects>
        <_>
          4 2 2 2 -1.</_>
        <_>
          4 2 1 1 2.</_>
        <_>
          5 3 1 1 2.</_></rects>
      <tilted>0</tilted></_>
    <_>
      <rects>
        <_>
          4 2 3 2 -1.</_>
        <_>
          5 2 1 2 2.</_></rects>
      <tilted>0</tilted></_>
    <_>
      <rects>
        <_>
          4 3 6 20 -1.</_>
        <_>
          7 3 3 20 2.</_></rects>
      <tilted>0</tilted></_>
    <_>
      <rects>
        <_>
          4 3 20 2 -1.</_>
        <_>
          4 4 20 1 2.</_></rects>
      <tilted>0</tilted></_>
    <_>
      <rects>
        <_>
          4 5 1 2 -1.</_>
        <_>
          4 6 1 1 2.</_></rects>
      <tilted>0</tilted></_>
    <_>
      <rects>
        <_>
          4 5 2 2 -1.</_>
        <_>
          4 5 1 1 2.</_>
        <_>
          5 6 1 1 2.</_></rects>
      <tilted>0</tilted></_>
    <_>
      <rects>
        <_>
          4 7 2 10 -1.</_>
        <_>
          4 7 1 5 2.</_>
        <_>
          5 12 1 5 2.</_></rects>
      <tilted>0</tilted></_>
    <_>
      <rects>
        <_>
          4 10 1 2 -1.</_>
        <_>
          4 11 1 1 2.</_></rects>
      <tilted>0</tilted></_>
    <_>
      <rects>
        <_>
          4 10 18 10 -1.</_>
        <_>
          4 10 9 5 2.</_>
        <_>
          13 15 9 5 2.</_></rects>
      <tilted>0</tilted></_>
    <_>
      <rects>
        <_>
          4 11 18 2 -1.</_>
        <_>
          4 11 9 1 2.</_>
        <_>
          13 12 9 1 2.</_></rects>
      <tilted>0</tilted></_>
    <_>
      <rects>
        <_>
          4 12 4 4 -1.</_>
        <_>
          4 12 2 2 2.</_>
        <_>
          6 14 2 2 2.</_></rects>
      <tilted>0</tilted></_>
    <_>
      <rects>
        <_>
          4 13 10 5 -1.</_>
        <_>
          9 13 5 5 2.</_></rects>
      <tilted>0</tilted></_>
    <_>
      <rects>
        <_>
          4 13 16 2 -1.</_>
        <_>
          4 13 8 1 2.</_>
        <_>
          12 14 8 1 2.</_></rects>
      <tilted>0</tilted></_>
    <_>
      <rects>
        <_>
          4 13 20 4 -1.</_>
        <_>
          4 13 10 2 2.</_>
        <_>
          14 15 10 2 2.</_></rects>
      <tilted>0</tilted></_>
    <_>
      <rects>
        <_>
          4 14 2 3 -1.</_>
        <_>
          5 14 1 3 2.</_></rects>
      <tilted>0</tilted></_>
    <_>
      <rects>
        <_>
          4 15 8 2 -1.</_>
        <_>
          4 15 4 1 2.</_>
        <_>
          8 16 4 1 2.</_></rects>
      <tilted>0</tilted></_>
    <_>
      <rects>
        <_>
          4 20 15 4 -1.</_>
        <_>
          4 22 15 2 2.</_></rects>
      <tilted>0</tilted></_>
    <_>
      <rects>
        <_>
          4 21 14 1 -1.</_>
        <_>
          11 21 7 1 2.</_></rects>
      <tilted>0</tilted></_>
    <_>
      <rects>
        <_>
          4 21 20 2 -1.</_>
        <_>
          4 22 20 1 2.</_></rects>
      <tilted>0</tilted></_>
    <_>
      <rects>
        <_>
          4 22 14 2 -1.</_>
        <_>
          4 22 7 1 2.</_>
        <_>
          11 23 7 1 2.</_></rects>
      <tilted>0</tilted></_>
    <_>
      <rects>
        <_>
          4 22 18 2 -1.</_>
        <_>
          4 22 9 1 2.</_>
        <_>
          13 23 9 1 2.</_></rects>
      <tilted>0</tilted></_>
    <_>
      <rects>
        <_>
          5 0 1 3 -1.</_>
        <_>
          5 1 1 1 2.</_></rects>
      <tilted>0</tilted></_>
    <_>
      <rects>
        <_>
          5 0 14 2 -1.</_>
        <_>
          5 0 7 1 2.</_>
        <_>
          12 1 7 1 2.</_></rects>
      <tilted>0</tilted></_>
    <_>
      <rects>
        <_>
          5 0 14 14 -1.</_>
        <_>
          12 0 7 14 2.</_></rects>
      <tilted>0</tilted></_>
    <_>
      <rects>
        <_>
          5 1 5 2 -1.</_>
        <_>
          5 2 5 1 2.</_></rects>
      <tilted>0</tilted></_>
    <_>
      <rects>
        <_>
          5 1 18 20 -1.</_>
        <_>
          5 11 18 10 2.</_></rects>
      <tilted>0</tilted></_>
    <_>
      <rects>
        <_>
          5 3 16 2 -1.</_>
        <_>
          5 3 8 1 2.</_>
        <_>
          13 4 8 1 2.</_></rects>
      <tilted>0</tilted></_>
    <_>
      <rects>
        <_>
          5 3 13 6 -1.</_>
        <_>
          5 6 13 3 2.</_></rects>
      <tilted>0</tilted></_>
    <_>
      <rects>
        <_>
          5 6 10 18 -1.</_>
        <_>
          5 6 5 9 2.</_>
        <_>
          10 15 5 9 2.</_></rects>
      <tilted>0</tilted></_>
    <_>
      <rects>
        <_>
          5 6 11 4 -1.</_>
        <_>
          5 8 11 2 2.</_></rects>
      <tilted>0</tilted></_>
    <_>
      <rects>
        <_>
          5 6 19 4 -1.</_>
        <_>
          5 8 19 2 2.</_></rects>
      <tilted>0</tilted></_>
    <_>
      <rects>
        <_>
          5 8 2 3 -1.</_>
        <_>
          6 8 1 3 2.</_></rects>
      <tilted>0</tilted></_>
    <_>
      <rects>
        <_>
          5 8 10 14 -1.</_>
        <_>
          5 8 5 7 2.</_>
        <_>
          10 15 5 7 2.</_></rects>
      <tilted>0</tilted></_>
    <_>
      <rects>
        <_>
          5 8 14 4 -1.</_>
        <_>
          5 8 7 2 2.</_>
        <_>
          12 10 7 2 2.</_></rects>
      <tilted>0</tilted></_>
    <_>
      <rects>
        <_>
          5 9 2 2 -1.</_>
        <_>
          5 10 2 1 2.</_></rects>
      <tilted>0</tilted></_>
    <_>
      <rects>
        <_>
          5 9 19 2 -1.</_>
        <_>
          5 10 19 1 2.</_></rects>
      <tilted>0</tilted></_>
    <_>
      <rects>
        <_>
          5 12 6 4 -1.</_>
        <_>
          5 12 3 2 2.</_>
        <_>
          8 14 3 2 2.</_></rects>
      <tilted>0</tilted></_>
    <_>
      <rects>
        <_>
          5 14 6 8 -1.</_>
        <_>
          8 14 3 8 2.</_></rects>
      <tilted>0</tilted></_>
    <_>
      <rects>
        <_>
          5 15 1 2 -1.</_>
        <_>
          5 16 1 1 2.</_></rects>
      <tilted>0</tilted></_>
    <_>
      <rects>
        <_>
          5 15 4 2 -1.</_>
        <_>
          5 15 2 1 2.</_>
        <_>
          7 16 2 1 2.</_></rects>
      <tilted>0</tilted></_>
    <_>
      <rects>
        <_>
          5 16 1 6 -1.</_>
        <_>
          5 19 1 3 2.</_></rects>
      <tilted>0</tilted></_>
    <_>
      <rects>
        <_>
          5 18 5 2 -1.</_>
        <_>
          5 19 5 1 2.</_></rects>
      <tilted>0</tilted></_>
    <_>
      <rects>
        <_>
          5 21 2 2 -1.</_>
        <_>
          5 21 1 1 2.</_>
        <_>
          6 22 1 1 2.</_></rects>
      <tilted>0</tilted></_>
    <_>
      <rects>
        <_>
          5 21 13 2 -1.</_>
        <_>
          5 22 13 1 2.</_></rects>
      <tilted>0</tilted></_>
    <_>
      <rects>
        <_>
          6 0 8 2 -1.</_>
        <_>
          6 0 4 1 2.</_>
        <_>
          10 1 4 1 2.</_></rects>
      <tilted>0</tilted></_>
    <_>
      <rects>
        <_>
          6 0 8 22 -1.</_>
        <_>
          6 0 4 11 2.</_>
        <_>
          10 11 4 11 2.</_></rects>
      <tilted>0</tilted></_>
    <_>
      <rects>
        <_>
          6 0 12 2 -1.</_>
        <_>
          6 0 6 1 2.</_>
        <_>
          12 1 6 1 2.</_></rects>
      <tilted>0</tilted></_>
    <_>
      <rects>
        <_>
          6 0 12 24 -1.</_>
        <_>
          6 0 6 12 2.</_>
        <_>
          12 12 6 12 2.</_></rects>
      <tilted>0</tilted></_>
    <_>
      <rects>
        <_>
          6 0 16 1 -1.</_>
        <_>
          14 0 8 1 2.</_></rects>
      <tilted>0</tilted></_>
    <_>
      <rects>
        <_>
          6 0 18 17 -1.</_>
        <_>
          15 0 9 17 2.</_></rects>
      <tilted>0</tilted></_>
    <_>
      <rects>
        <_>
          6 1 16 2 -1.</_>
        <_>
          6 2 16 1 2.</_></rects>
      <tilted>0</tilted></_>
    <_>
      <rects>
        <_>
          6 3 6 4 -1.</_>
        <_>
          6 5 6 2 2.</_></rects>
      <tilted>0</tilted></_>
    <_>
      <rects>
        <_>
          6 3 7 16 -1.</_>
        <_>
          6 11 7 8 2.</_></rects>
      <tilted>0</tilted></_>
    <_>
      <rects>
        <_>
          6 3 10 2 -1.</_>
        <_>
          6 4 10 1 2.</_></rects>
      <tilted>0</tilted></_>
    <_>
      <rects>
        <_>
          6 8 10 1 -1.</_>
        <_>
          11 8 5 1 2.</_></rects>
      <tilted>0</tilted></_>
    <_>
      <rects>
        <_>
          6 9 4 1 -1.</_>
        <_>
          8 9 2 1 2.</_></rects>
      <tilted>0</tilted></_>
    <_>
      <rects>
        <_>
          6 9 12 12 -1.</_>
        <_>
          6 9 6 6 2.</_>
        <_>
          12 15 6 6 2.</_></rects>
      <tilted>0</tilted></_>
    <_>
      <rects>
        <_>
          6 11 2 3 -1.</_>
        <_>
          7 11 1 3 2.</_></rects>
      <tilted>0</tilted></_>
    <_>
      <rects>
        <_>
          6 12 2 2 -1.</_>
        <_>
          6 12 1 1 2.</_>
        <_>
          7 13 1 1 2.</_></rects>
      <tilted>0</tilted></_>
    <_>
      <rects>
        <_>
          6 13 3 2 -1.</_>
        <_>
          6 14 3 1 2.</_></rects>
      <tilted>0</tilted></_>
    <_>
      <rects>
        <_>
          6 14 4 2 -1.</_>
        <_>
          6 14 2 1 2.</_>
        <_>
          8 15 2 1 2.</_></rects>
      <tilted>0</tilted></_>
    <_>
      <rects>
        <_>
          6 18 13 6 -1.</_>
        <_>
          6 21 13 3 2.</_></rects>
      <tilted>0</tilted></_>
    <_>
      <rects>
        <_>
          6 19 16 4 -1.</_>
        <_>
          14 19 8 4 2.</_></rects>
      <tilted>0</tilted></_>
    <_>
      <rects>
        <_>
          6 20 2 4 -1.</_>
        <_>
          6 20 1 2 2.</_>
        <_>
          7 22 1 2 2.</_></rects>
      <tilted>0</tilted></_>
    <_>
      <rects>
        <_>
          6 21 2 2 -1.</_>
        <_>
          7 21 1 2 2.</_></rects>
      <tilted>0</tilted></_>
    <_>
      <rects>
        <_>
          6 21 16 2 -1.</_>
        <_>
          14 21 8 2 2.</_></rects>
      <tilted>0</tilted></_>
    <_>
      <rects>
        <_>
          6 22 16 2 -1.</_>
        <_>
          6 22 8 1 2.</_>
        <_>
          14 23 8 1 2.</_></rects>
      <tilted>0</tilted></_>
    <_>
      <rects>
        <_>
          7 0 2 16 -1.</_>
        <_>
          7 0 1 8 2.</_>
        <_>
          8 8 1 8 2.</_></rects>
      <tilted>0</tilted></_>
    <_>
      <rects>
        <_>
          7 0 10 2 -1.</_>
        <_>
          7 0 5 1 2.</_>
        <_>
          12 1 5 1 2.</_></rects>
      <tilted>0</tilted></_>
    <_>
      <rects>
        <_>
          7 0 11 2 -1.</_>
        <_>
          7 1 11 1 2.</_></rects>
      <tilted>0</tilted></_>
    <_>
      <rects>
        <_>
          7 1 2 2 -1.</_>
        <_>
          7 2 2 1 2.</_></rects>
      <tilted>0</tilted></_>
    <_>
      <rects>
        <_>
          7 3 8 4 -1.</_>
        <_>
          7 3 4 2 2.</_>
        <_>
          11 5 4 2 2.</_></rects>
      <tilted>0</tilted></_>
    <_>
      <rects>
        <_>
          7 4 16 8 -1.</_>
        <_>
          7 8 16 4 2.</_></rects>
      <tilted>0</tilted></_>
    <_>
      <rects>
        <_>
          7 5 10 9 -1.</_>
        <_>
          12 5 5 9 2.</_></rects>
      <tilted>0</tilted></_>
    <_>
      <rects>
        <_>
          7 6 9 4 -1.</_>
        <_>
          7 8 9 2 2.</_></rects>
      <tilted>0</tilted></_>
    <_>
      <rects>
        <_>
          7 7 4 10 -1.</_>
        <_>
          9 7 2 10 2.</_></rects>
      <tilted>0</tilted></_>
    <_>
      <rects>
        <_>
          7 7 10 14 -1.</_>
        <_>
          7 7 5 7 2.</_>
        <_>
          12 14 5 7 2.</_></rects>
      <tilted>0</tilted></_>
    <_>
      <rects>
        <_>
          7 8 4 3 -1.</_>
        <_>
          9 8 2 3 2.</_></rects>
      <tilted>0</tilted></_>
    <_>
      <rects>
        <_>
          7 8 10 14 -1.</_>
        <_>
          7 8 5 7 2.</_>
        <_>
          12 15 5 7 2.</_></rects>
      <tilted>0</tilted></_>
    <_>
      <rects>
        <_>
          7 11 4 12 -1.</_>
        <_>
          7 11 2 6 2.</_>
        <_>
          9 17 2 6 2.</_></rects>
      <tilted>0</tilted></_>
    <_>
      <rects>
        <_>
          7 16 8 2 -1.</_>
        <_>
          7 16 4 1 2.</_>
        <_>
          11 17 4 1 2.</_></rects>
      <tilted>0</tilted></_>
    <_>
      <rects>
        <_>
          7 17 12 2 -1.</_>
        <_>
          7 17 6 1 2.</_>
        <_>
          13 18 6 1 2.</_></rects>
      <tilted>0</tilted></_>
    <_>
      <rects>
        <_>
          7 18 10 2 -1.</_>
        <_>
          7 18 5 1 2.</_>
        <_>
          12 19 5 1 2.</_></rects>
      <tilted>0</tilted></_>
    <_>
      <rects>
        <_>
          7 19 6 4 -1.</_>
        <_>
          7 19 3 2 2.</_>
        <_>
          10 21 3 2 2.</_></rects>
      <tilted>0</tilted></_>
    <_>
      <rects>
        <_>
          7 19 16 5 -1.</_>
        <_>
          15 19 8 5 2.</_></rects>
      <tilted>0</tilted></_>
    <_>
      <rects>
        <_>
          7 20 12 4 -1.</_>
        <_>
          13 20 6 4 2.</_></rects>
      <tilted>0</tilted></_>
    <_>
      <rects>
        <_>
          8 0 2 3 -1.</_>
        <_>
          9 0 1 3 2.</_></rects>
      <tilted>0</tilted></_>
    <_>
      <rects>
        <_>
          8 0 6 2 -1.</_>
        <_>
          8 0 3 1 2.</_>
        <_>
          11 1 3 1 2.</_></rects>
      <tilted>0</tilted></_>
    <_>
      <rects>
        <_>
          8 0 15 1 -1.</_>
        <_>
          13 0 5 1 2.</_></rects>
      <tilted>0</tilted></_>
    <_>
      <rects>
        <_>
          8 0 13 2 -1.</_>
        <_>
          8 1 13 1 2.</_></rects>
      <tilted>0</tilted></_>
    <_>
      <rects>
        <_>
          8 1 1 2 -1.</_>
        <_>
          8 2 1 1 2.</_></rects>
      <tilted>0</tilted></_>
    <_>
      <rects>
        <_>
          8 1 12 12 -1.</_>
        <_>
          8 1 6 6 2.</_>
        <_>
          14 7 6 6 2.</_></rects>
      <tilted>0</tilted></_>
    <_>
      <rects>
        <_>
          8 3 14 4 -1.</_>
        <_>
          8 5 14 2 2.</_></rects>
      <tilted>0</tilted></_>
    <_>
      <rects>
        <_>
          8 4 6 6 -1.</_>
        <_>
          11 4 3 6 2.</_></rects>
      <tilted>0</tilted></_>
    <_>
      <rects>
        <_>
          8 6 1 12 -1.</_>
        <_>
          8 12 1 6 2.</_></rects>
      <tilted>0</tilted></_>
    <_>
      <rects>
        <_>
          8 6 2 2 -1.</_>
        <_>
          8 7 2 1 2.</_></rects>
      <tilted>0</tilted></_>
    <_>
      <rects>
        <_>
          8 7 4 16 -1.</_>
        <_>
          8 7 2 8 2.</_>
        <_>
          10 15 2 8 2.</_></rects>
      <tilted>0</tilted></_>
    <_>
      <rects>
        <_>
          8 8 4 3 -1.</_>
        <_>
          10 8 2 3 2.</_></rects>
      <tilted>0</tilted></_>
    <_>
      <rects>
        <_>
          8 8 6 1 -1.</_>
        <_>
          11 8 3 1 2.</_></rects>
      <tilted>0</tilted></_>
    <_>
      <rects>
        <_>
          8 12 10 10 -1.</_>
        <_>
          8 17 10 5 2.</_></rects>
      <tilted>0</tilted></_>
    <_>
      <rects>
        <_>
          8 15 2 2 -1.</_>
        <_>
          8 16 2 1 2.</_></rects>
      <tilted>0</tilted></_>
    <_>
      <rects>
        <_>
          8 15 12 2 -1.</_>
        <_>
          8 15 6 1 2.</_>
        <_>
          14 16 6 1 2.</_></rects>
      <tilted>0</tilted></_>
    <_>
      <rects>
        <_>
          8 16 1 2 -1.</_>
        <_>
          8 17 1 1 2.</_></rects>
      <tilted>0</tilted></_>
    <_>
      <rects>
        <_>
          8 18 8 4 -1.</_>
        <_>
          8 18 4 2 2.</_>
        <_>
          12 20 4 2 2.</_></rects>
      <tilted>0</tilted></_>
    <_>
      <rects>
        <_>
          8 18 12 4 -1.</_>
        <_>
          8 18 6 2 2.</_>
        <_>
          14 20 6 2 2.</_></rects>
      <tilted>0</tilted></_>
    <_>
      <rects>
        <_>
          8 22 14 2 -1.</_>
        <_>
          8 22 7 1 2.</_>
        <_>
          15 23 7 1 2.</_></rects>
      <tilted>0</tilted></_>
    <_>
      <rects>
        <_>
          9 0 1 3 -1.</_>
        <_>
          9 1 1 1 2.</_></rects>
      <tilted>0</tilted></_>
    <_>
      <rects>
        <_>
          9 0 4 2 -1.</_>
        <_>
          9 0 2 1 2.</_>
        <_>
          11 1 2 1 2.</_></rects>
      <tilted>0</tilted></_>
    <_>
      <rects>
        <_>
          9 0 8 2 -1.</_>
        <_>
          9 0 4 1 2.</_>
        <_>
          13 1 4 1 2.</_></rects>
      <tilted>0</tilted></_>
    <_>
      <rects>
        <_>
          9 0 10 2 -1.</_>
        <_>
          9 0 5 1 2.</_>
        <_>
          14 1 5 1 2.</_></rects>
      <tilted>0</tilted></_>
    <_>
      <rects>
        <_>
          9 5 2 2 -1.</_>
        <_>
          9 5 1 1 2.</_>
        <_>
          10 6 1 1 2.</_></rects>
      <tilted>0</tilted></_>
    <_>
      <rects>
        <_>
          9 5 5 2 -1.</_>
        <_>
          9 6 5 1 2.</_></rects>
      <tilted>0</tilted></_>
    <_>
      <rects>
        <_>
          9 7 1 2 -1.</_>
        <_>
          9 8 1 1 2.</_></rects>
      <tilted>0</tilted></_>
    <_>
      <rects>
        <_>
          9 10 12 2 -1.</_>
        <_>
          9 10 6 1 2.</_>
        <_>
          15 11 6 1 2.</_></rects>
      <tilted>0</tilted></_>
    <_>
      <rects>
        <_>
          9 13 6 6 -1.</_>
        <_>
          12 13 3 6 2.</_></rects>
      <tilted>0</tilted></_>
    <_>
      <rects>
        <_>
          9 15 4 2 -1.</_>
        <_>
          9 15 2 1 2.</_>
        <_>
          11 16 2 1 2.</_></rects>
      <tilted>0</tilted></_>
    <_>
      <rects>
        <_>
          9 15 10 8 -1.</_>
        <_>
          9 15 5 4 2.</_>
        <_>
          14 19 5 4 2.</_></rects>
      <tilted>0</tilted></_>
    <_>
      <rects>
        <_>
          9 17 2 6 -1.</_>
        <_>
          10 17 1 6 2.</_></rects>
      <tilted>0</tilted></_>
    <_>
      <rects>
        <_>
          9 21 4 2 -1.</_>
        <_>
          9 21 2 1 2.</_>
        <_>
          11 22 2 1 2.</_></rects>
      <tilted>0</tilted></_>
    <_>
      <rects>
        <_>
          9 22 8 2 -1.</_>
        <_>
          9 22 4 1 2.</_>
        <_>
          13 23 4 1 2.</_></rects>
      <tilted>0</tilted></_>
    <_>
      <rects>
        <_>
          10 0 2 8 -1.</_>
        <_>
          10 0 1 4 2.</_>
        <_>
          11 4 1 4 2.</_></rects>
      <tilted>0</tilted></_>
    <_>
      <rects>
        <_>
          10 0 8 20 -1.</_>
        <_>
          10 0 4 10 2.</_>
        <_>
          14 10 4 10 2.</_></rects>
      <tilted>0</tilted></_>
    <_>
      <rects>
        <_>
          10 0 7 2 -1.</_>
        <_>
          10 1 7 1 2.</_></rects>
      <tilted>0</tilted></_>
    <_>
      <rects>
        <_>
          10 2 1 18 -1.</_>
        <_>
          10 11 1 9 2.</_></rects>
      <tilted>0</tilted></_>
    <_>
      <rects>
        <_>
          10 2 2 21 -1.</_>
        <_>
          11 2 1 21 2.</_></rects>
      <tilted>0</tilted></_>
    <_>
      <rects>
        <_>
          10 4 3 15 -1.</_>
        <_>
          10 9 3 5 2.</_></rects>
      <tilted>0</tilted></_>
    <_>
      <rects>
        <_>
          10 5 4 4 -1.</_>
        <_>
          12 5 2 4 2.</_></rects>
      <tilted>0</tilted></_>
    <_>
      <rects>
        <_>
          10 5 4 2 -1.</_>
        <_>
          10 6 4 1 2.</_></rects>
      <tilted>0</tilted></_>
    <_>
      <rects>
        <_>
          10 7 2 10 -1.</_>
        <_>
          10 7 1 5 2.</_>
        <_>
          11 12 1 5 2.</_></rects>
      <tilted>0</tilted></_>
    <_>
      <rects>
        <_>
          10 7 2 2 -1.</_>
        <_>
          10 8 2 1 2.</_></rects>
      <tilted>0</tilted></_>
    <_>
      <rects>
        <_>
          10 7 4 3 -1.</_>
        <_>
          12 7 2 3 2.</_></rects>
      <tilted>0</tilted></_>
    <_>
      <rects>
        <_>
          10 8 2 8 -1.</_>
        <_>
          11 8 1 8 2.</_></rects>
      <tilted>0</tilted></_>
    <_>
      <rects>
        <_>
          10 10 12 4 -1.</_>
        <_>
          10 10 6 2 2.</_>
        <_>
          16 12 6 2 2.</_></rects>
      <tilted>0</tilted></_>
    <_>
      <rects>
        <_>
          10 10 12 8 -1.</_>
        <_>
          10 10 6 4 2.</_>
        <_>
          16 14 6 4 2.</_></rects>
      <tilted>0</tilted></_>
    <_>
      <rects>
        <_>
          10 12 2 8 -1.</_>
        <_>
          10 12 1 4 2.</_>
        <_>
          11 16 1 4 2.</_></rects>
      <tilted>0</tilted></_>
    <_>
      <rects>
        <_>
          10 15 1 2 -1.</_>
        <_>
          10 16 1 1 2.</_></rects>
      <tilted>0</tilted></_>
    <_>
      <rects>
        <_>
          10 17 10 3 -1.</_>
        <_>
          15 17 5 3 2.</_></rects>
      <tilted>0</tilted></_>
    <_>
      <rects>
        <_>
          10 18 8 4 -1.</_>
        <_>
          10 18 4 2 2.</_>
        <_>
          14 20 4 2 2.</_></rects>
      <tilted>0</tilted></_>
    <_>
      <rects>
        <_>
          10 20 3 4 -1.</_>
        <_>
          10 22 3 2 2.</_></rects>
      <tilted>0</tilted></_>
    <_>
      <rects>
        <_>
          11 0 2 4 -1.</_>
        <_>
          12 0 1 4 2.</_></rects>
      <tilted>0</tilted></_>
    <_>
      <rects>
        <_>
          11 0 4 2 -1.</_>
        <_>
          11 1 4 1 2.</_></rects>
      <tilted>0</tilted></_>
    <_>
      <rects>
        <_>
          11 0 8 4 -1.</_>
        <_>
          11 0 4 2 2.</_>
        <_>
          15 2 4 2 2.</_></rects>
      <tilted>0</tilted></_>
    <_>
      <rects>
        <_>
          11 0 6 2 -1.</_>
        <_>
          11 1 6 1 2.</_></rects>
      <tilted>0</tilted></_>
    <_>
      <rects>
        <_>
          11 4 1 4 -1.</_>
        <_>
          11 6 1 2 2.</_></rects>
      <tilted>0</tilted></_>
    <_>
      <rects>
        <_>
          11 7 6 6 -1.</_>
        <_>
          11 7 3 3 2.</_>
        <_>
          14 10 3 3 2.</_></rects>
      <tilted>0</tilted></_>
    <_>
      <rects>
        <_>
          11 7 9 4 -1.</_>
        <_>
          11 9 9 2 2.</_></rects>
      <tilted>0</tilted></_>
    <_>
      <rects>
        <_>
          11 9 8 3 -1.</_>
        <_>
          15 9 4 3 2.</_></rects>
      <tilted>0</tilted></_>
    <_>
      <rects>
        <_>
          11 10 2 5 -1.</_>
        <_>
          12 10 1 5 2.</_></rects>
      <tilted>0</tilted></_>
    <_>
      <rects>
        <_>
          11 10 6 1 -1.</_>
        <_>
          13 10 2 1 2.</_></rects>
      <tilted>0</tilted></_>
    <_>
      <rects>
        <_>
          11 20 6 4 -1.</_>
        <_>
          11 22 6 2 2.</_></rects>
      <tilted>0</tilted></_>
    <_>
      <rects>
        <_>
          11 22 4 2 -1.</_>
        <_>
          11 23 4 1 2.</_></rects>
      <tilted>0</tilted></_>
    <_>
      <rects>
        <_>
          12 0 1 2 -1.</_>
        <_>
          12 1 1 1 2.</_></rects>
      <tilted>0</tilted></_>
    <_>
      <rects>
        <_>
          12 0 2 10 -1.</_>
        <_>
          12 0 1 5 2.</_>
        <_>
          13 5 1 5 2.</_></rects>
      <tilted>0</tilted></_>
    <_>
      <rects>
        <_>
          12 0 9 2 -1.</_>
        <_>
          12 1 9 1 2.</_></rects>
      <tilted>0</tilted></_>
    <_>
      <rects>
        <_>
          12 1 2 6 -1.</_>
        <_>
          13 1 1 6 2.</_></rects>
      <tilted>0</tilted></_>
    <_>
      <rects>
        <_>
          12 2 3 2 -1.</_>
        <_>
          12 3 3 1 2.</_></rects>
      <tilted>0</tilted></_>
    <_>
      <rects>
        <_>
          12 7 2 4 -1.</_>
        <_>
          12 7 1 2 2.</_>
        <_>
          13 9 1 2 2.</_></rects>
      <tilted>0</tilted></_>
    <_>
      <rects>
        <_>
          12 8 2 2 -1.</_>
        <_>
          12 8 1 1 2.</_>
        <_>
          13 9 1 1 2.</_></rects>
      <tilted>0</tilted></_>
    <_>
      <rects>
        <_>
          12 14 2 2 -1.</_>
        <_>
          12 15 2 1 2.</_></rects>
      <tilted>0</tilted></_>
    <_>
      <rects>
        <_>
          12 17 4 2 -1.</_>
        <_>
          12 17 2 1 2.</_>
        <_>
          14 18 2 1 2.</_></rects>
      <tilted>0</tilted></_>
    <_>
      <rects>
        <_>
          12 19 4 4 -1.</_>
        <_>
          12 19 2 2 2.</_>
        <_>
          14 21 2 2 2.</_></rects>
      <tilted>0</tilted></_>
    <_>
      <rects>
        <_>
          12 22 5 2 -1.</_>
        <_>
          12 23 5 1 2.</_></rects>
      <tilted>0</tilted></_>
    <_>
      <rects>
        <_>
          13 0 6 14 -1.</_>
        <_>
          13 0 3 7 2.</_>
        <_>
          16 7 3 7 2.</_></rects>
      <tilted>0</tilted></_>
    <_>
      <rects>
        <_>
          13 0 8 2 -1.</_>
        <_>
          13 1 8 1 2.</_></rects>
      <tilted>0</tilted></_>
    <_>
      <rects>
        <_>
          13 4 2 2 -1.</_>
        <_>
          13 5 2 1 2.</_></rects>
      <tilted>0</tilted></_>
    <_>
      <rects>
        <_>
          13 5 10 2 -1.</_>
        <_>
          13 6 10 1 2.</_></rects>
      <tilted>0</tilted></_>
    <_>
      <rects>
        <_>
          13 5 11 16 -1.</_>
        <_>
          13 13 11 8 2.</_></rects>
      <tilted>0</tilted></_>
    <_>
      <rects>
        <_>
          13 6 6 4 -1.</_>
        <_>
          13 6 3 2 2.</_>
        <_>
          16 8 3 2 2.</_></rects>
      <tilted>0</tilted></_>
    <_>
      <rects>
        <_>
          13 7 2 3 -1.</_>
        <_>
          14 7 1 3 2.</_></rects>
      <tilted>0</tilted></_>
    <_>
      <rects>
        <_>
          13 9 6 12 -1.</_>
        <_>
          13 15 6 6 2.</_></rects>
      <tilted>0</tilted></_>
    <_>
      <rects>
        <_>
          13 10 1 10 -1.</_>
        <_>
          13 15 1 5 2.</_></rects>
      <tilted>0</tilted></_>
    <_>
      <rects>
        <_>
          13 10 6 14 -1.</_>
        <_>
          16 10 3 14 2.</_></rects>
      <tilted>0</tilted></_>
    <_>
      <rects>
        <_>
          13 11 2 2 -1.</_>
        <_>
          13 11 1 1 2.</_>
        <_>
          14 12 1 1 2.</_></rects>
      <tilted>0</tilted></_>
    <_>
      <rects>
        <_>
          13 11 2 3 -1.</_>
        <_>
          13 12 2 1 2.</_></rects>
      <tilted>0</tilted></_>
    <_>
      <rects>
        <_>
          13 12 6 4 -1.</_>
        <_>
          13 12 3 2 2.</_>
        <_>
          16 14 3 2 2.</_></rects>
      <tilted>0</tilted></_>
    <_>
      <rects>
        <_>
          13 19 10 3 -1.</_>
        <_>
          18 19 5 3 2.</_></rects>
      <tilted>0</tilted></_>
    <_>
      <rects>
        <_>
          13 20 9 4 -1.</_>
        <_>
          13 22 9 2 2.</_></rects>
      <tilted>0</tilted></_>
    <_>
      <rects>
        <_>
          13 21 2 2 -1.</_>
        <_>
          13 22 2 1 2.</_></rects>
      <tilted>0</tilted></_>
    <_>
      <rects>
        <_>
          14 0 9 1 -1.</_>
        <_>
          17 0 3 1 2.</_></rects>
      <tilted>0</tilted></_>
    <_>
      <rects>
        <_>
          14 0 10 4 -1.</_>
        <_>
          14 0 5 2 2.</_>
        <_>
          19 2 5 2 2.</_></rects>
      <tilted>0</tilted></_>
    <_>
      <rects>
        <_>
          14 1 2 3 -1.</_>
        <_>
          15 1 1 3 2.</_></rects>
      <tilted>0</tilted></_>
    <_>
      <rects>
        <_>
          14 1 5 2 -1.</_>
        <_>
          14 2 5 1 2.</_></rects>
      <tilted>0</tilted></_>
    <_>
      <rects>
        <_>
          14 1 10 2 -1.</_>
        <_>
          14 1 5 1 2.</_>
        <_>
          19 2 5 1 2.</_></rects>
      <tilted>0</tilted></_>
    <_>
      <rects>
        <_>
          14 1 10 2 -1.</_>
        <_>
          19 1 5 2 2.</_></rects>
      <tilted>0</tilted></_>
    <_>
      <rects>
        <_>
          14 4 8 6 -1.</_>
        <_>
          14 4 4 3 2.</_>
        <_>
          18 7 4 3 2.</_></rects>
      <tilted>0</tilted></_>
    <_>
      <rects>
        <_>
          14 5 1 2 -1.</_>
        <_>
          14 6 1 1 2.</_></rects>
      <tilted>0</tilted></_>
    <_>
      <rects>
        <_>
          14 5 2 5 -1.</_>
        <_>
          15 5 1 5 2.</_></rects>
      <tilted>0</tilted></_>
    <_>
      <rects>
        <_>
          14 5 10 2 -1.</_>
        <_>
          14 5 5 1 2.</_>
        <_>
          19 6 5 1 2.</_></rects>
      <tilted>0</tilted></_>
    <_>
      <rects>
        <_>
          14 8 2 2 -1.</_>
        <_>
          14 8 1 1 2.</_>
        <_>
          15 9 1 1 2.</_></rects>
      <tilted>0</tilted></_>
    <_>
      <rects>
        <_>
          15 0 4 2 -1.</_>
        <_>
          15 0 2 1 2.</_>
        <_>
          17 1 2 1 2.</_></rects>
      <tilted>0</tilted></_>
    <_>
      <rects>
        <_>
          15 4 2 2 -1.</_>
        <_>
          15 4 1 1 2.</_>
        <_>
          16 5 1 1 2.</_></rects>
      <tilted>0</tilted></_>
    <_>
      <rects>
        <_>
          15 7 4 5 -1.</_>
        <_>
          17 7 2 5 2.</_></rects>
      <tilted>0</tilted></_>
    <_>
      <rects>
        <_>
          15 11 2 1 -1.</_>
        <_>
          16 11 1 1 2.</_></rects>
      <tilted>0</tilted></_>
    <_>
      <rects>
        <_>
          15 13 6 4 -1.</_>
        <_>
          15 13 3 2 2.</_>
        <_>
          18 15 3 2 2.</_></rects>
      <tilted>0</tilted></_>
    <_>
      <rects>
        <_>
          15 13 8 4 -1.</_>
        <_>
          15 15 8 2 2.</_></rects>
      <tilted>0</tilted></_>
    <_>
      <rects>
        <_>
          15 13 9 4 -1.</_>
        <_>
          15 15 9 2 2.</_></rects>
      <tilted>0</tilted></_>
    <_>
      <rects>
        <_>
          15 14 8 6 -1.</_>
        <_>
          15 14 4 3 2.</_>
        <_>
          19 17 4 3 2.</_></rects>
      <tilted>0</tilted></_>
    <_>
      <rects>
        <_>
          15 14 7 2 -1.</_>
        <_>
          15 15 7 1 2.</_></rects>
      <tilted>0</tilted></_>
    <_>
      <rects>
        <_>
          15 15 2 6 -1.</_>
        <_>
          15 15 1 3 2.</_>
        <_>
          16 18 1 3 2.</_></rects>
      <tilted>0</tilted></_>
    <_>
      <rects>
        <_>
          15 15 6 2 -1.</_>
        <_>
          15 15 3 1 2.</_>
        <_>
          18 16 3 1 2.</_></rects>
      <tilted>0</tilted></_>
    <_>
      <rects>
        <_>
          15 19 5 2 -1.</_>
        <_>
          15 20 5 1 2.</_></rects>
      <tilted>0</tilted></_>
    <_>
      <rects>
        <_>
          16 1 1 12 -1.</_>
        <_>
          16 5 1 4 2.</_></rects>
      <tilted>0</tilted></_>
    <_>
      <rects>
        <_>
          16 1 5 2 -1.</_>
        <_>
          16 2 5 1 2.</_></rects>
      <tilted>0</tilted></_>
    <_>
      <rects>
        <_>
          16 2 8 12 -1.</_>
        <_>
          16 2 4 6 2.</_>
        <_>
          20 8 4 6 2.</_></rects>
      <tilted>0</tilted></_>
    <_>
      <rects>
        <_>
          16 3 1 18 -1.</_>
        <_>
          16 12 1 9 2.</_></rects>
      <tilted>0</tilted></_>
    <_>
      <rects>
        <_>
          16 3 2 11 -1.</_>
        <_>
          17 3 1 11 2.</_></rects>
      <tilted>0</tilted></_>
    <_>
      <rects>
        <_>
          16 4 2 5 -1.</_>
        <_>
          17 4 1 5 2.</_></rects>
      <tilted>0</tilted></_>
    <_>
      <rects>
        <_>
          16 7 6 14 -1.</_>
        <_>
          16 7 3 7 2.</_>
        <_>
          19 14 3 7 2.</_></rects>
      <tilted>0</tilted></_>
    <_>
      <rects>
        <_>
          16 8 8 7 -1.</_>
        <_>
          20 8 4 7 2.</_></rects>
      <tilted>0</tilted></_>
    <_>
      <rects>
        <_>
          16 9 4 4 -1.</_>
        <_>
          18 9 2 4 2.</_></rects>
      <tilted>0</tilted></_>
    <_>
      <rects>
        <_>
          16 10 4 1 -1.</_>
        <_>
          18 10 2 1 2.</_></rects>
      <tilted>0</tilted></_>
    <_>
      <rects>
        <_>
          16 10 8 5 -1.</_>
        <_>
          20 10 4 5 2.</_></rects>
      <tilted>0</tilted></_>
    <_>
      <rects>
        <_>
          16 14 2 9 -1.</_>
        <_>
          17 14 1 9 2.</_></rects>
      <tilted>0</tilted></_>
    <_>
      <rects>
        <_>
          16 15 4 2 -1.</_>
        <_>
          16 15 2 1 2.</_>
        <_>
          18 16 2 1 2.</_></rects>
      <tilted>0</tilted></_>
    <_>
      <rects>
        <_>
          16 16 3 2 -1.</_>
        <_>
          16 17 3 1 2.</_></rects>
      <tilted>0</tilted></_>
    <_>
      <rects>
        <_>
          17 0 2 2 -1.</_>
        <_>
          17 0 1 1 2.</_>
        <_>
          18 1 1 1 2.</_></rects>
      <tilted>0</tilted></_>
    <_>
      <rects>
        <_>
          17 0 4 2 -1.</_>
        <_>
          17 1 4 1 2.</_></rects>
      <tilted>0</tilted></_>
    <_>
      <rects>
        <_>
          17 8 2 2 -1.</_>
        <_>
          17 8 1 1 2.</_>
        <_>
          18 9 1 1 2.</_></rects>
      <tilted>0</tilted></_>
    <_>
      <rects>
        <_>
          17 9 7 2 -1.</_>
        <_>
          17 10 7 1 2.</_></rects>
      <tilted>0</tilted></_>
    <_>
      <rects>
        <_>
          17 11 2 3 -1.</_>
        <_>
          18 11 1 3 2.</_></rects>
      <tilted>0</tilted></_>
    <_>
      <rects>
        <_>
          17 11 4 2 -1.</_>
        <_>
          19 11 2 2 2.</_></rects>
      <tilted>0</tilted></_>
    <_>
      <rects>
        <_>
          17 11 7 12 -1.</_>
        <_>
          17 17 7 6 2.</_></rects>
      <tilted>0</tilted></_>
    <_>
      <rects>
        <_>
          17 12 2 2 -1.</_>
        <_>
          18 12 1 2 2.</_></rects>
      <tilted>0</tilted></_>
    <_>
      <rects>
        <_>
          17 15 1 2 -1.</_>
        <_>
          17 16 1 1 2.</_></rects>
      <tilted>0</tilted></_>
    <_>
      <rects>
        <_>
          17 15 2 6 -1.</_>
        <_>
          18 15 1 6 2.</_></rects>
      <tilted>0</tilted></_>
    <_>
      <rects>
        <_>
          17 15 2 6 -1.</_>
        <_>
          17 18 2 3 2.</_></rects>
      <tilted>0</tilted></_>
    <_>
      <rects>
        <_>
          17 23 2 1 -1.</_>
        <_>
          18 23 1 1 2.</_></rects>
      <tilted>0</tilted></_>
    <_>
      <rects>
        <_>
          18 1 4 2 -1.</_>
        <_>
          18 1 2 1 2.</_>
        <_>
          20 2 2 1 2.</_></rects>
      <tilted>0</tilted></_>
    <_>
      <rects>
        <_>
          18 2 2 14 -1.</_>
        <_>
          18 2 1 7 2.</_>
        <_>
          19 9 1 7 2.</_></rects>
      <tilted>0</tilted></_>
    <_>
      <rects>
        <_>
          18 2 6 22 -1.</_>
        <_>
          18 2 3 11 2.</_>
        <_>
          21 13 3 11 2.</_></rects>
      <tilted>0</tilted></_>
    <_>
      <rects>
        <_>
          18 3 4 1 -1.</_>
        <_>
          20 3 2 1 2.</_></rects>
      <tilted>0</tilted></_>
    <_>
      <rects>
        <_>
          18 5 3 1 -1.</_>
        <_>
          19 5 1 1 2.</_></rects>
      <tilted>0</tilted></_>
    <_>
      <rects>
        <_>
          18 5 2 4 -1.</_>
        <_>
          18 5 1 2 2.</_>
        <_>
          19 7 1 2 2.</_></rects>
      <tilted>0</tilted></_>
    <_>
      <rects>
        <_>
          18 10 2 14 -1.</_>
        <_>
          19 10 1 14 2.</_></rects>
      <tilted>0</tilted></_>
    <_>
      <rects>
        <_>
          18 10 4 2 -1.</_>
        <_>
          20 10 2 2 2.</_></rects>
      <tilted>0</tilted></_>
    <_>
      <rects>
        <_>
          18 12 5 2 -1.</_>
        <_>
          18 13 5 1 2.</_></rects>
      <tilted>0</tilted></_>
    <_>
      <rects>
        <_>
          18 13 6 3 -1.</_>
        <_>
          21 13 3 3 2.</_></rects>
      <tilted>0</tilted></_>
    <_>
      <rects>
        <_>
          18 13 5 2 -1.</_>
        <_>
          18 14 5 1 2.</_></rects>
      <tilted>0</tilted></_>
    <_>
      <rects>
        <_>
          18 14 2 2 -1.</_>
        <_>
          19 14 1 2 2.</_></rects>
      <tilted>0</tilted></_>
    <_>
      <rects>
        <_>
          18 18 2 6 -1.</_>
        <_>
          19 18 1 6 2.</_></rects>
      <tilted>0</tilted></_>
    <_>
      <rects>
        <_>
          18 19 2 3 -1.</_>
        <_>
          19 19 1 3 2.</_></rects>
      <tilted>0</tilted></_>
    <_>
      <rects>
        <_>
          19 0 4 6 -1.</_>
        <_>
          19 0 2 3 2.</_>
        <_>
          21 3 2 3 2.</_></rects>
      <tilted>0</tilted></_>
    <_>
      <rects>
        <_>
          19 2 1 12 -1.</_>
        <_>
          19 8 1 6 2.</_></rects>
      <tilted>0</tilted></_>
    <_>
      <rects>
        <_>
          19 4 2 2 -1.</_>
        <_>
          19 5 2 1 2.</_></rects>
      <tilted>0</tilted></_>
    <_>
      <rects>
        <_>
          19 5 2 2 -1.</_>
        <_>
          19 5 1 1 2.</_>
        <_>
          20 6 1 1 2.</_></rects>
      <tilted>0</tilted></_>
    <_>
      <rects>
        <_>
          19 5 4 10 -1.</_>
        <_>
          19 5 2 5 2.</_>
        <_>
          21 10 2 5 2.</_></rects>
      <tilted>0</tilted></_>
    <_>
      <rects>
        <_>
          19 7 2 4 -1.</_>
        <_>
          19 7 1 2 2.</_>
        <_>
          20 9 1 2 2.</_></rects>
      <tilted>0</tilted></_>
    <_>
      <rects>
        <_>
          19 8 4 4 -1.</_>
        <_>
          19 8 2 2 2.</_>
        <_>
          21 10 2 2 2.</_></rects>
      <tilted>0</tilted></_>
    <_>
      <rects>
        <_>
          19 12 2 4 -1.</_>
        <_>
          19 14 2 2 2.</_></rects>
      <tilted>0</tilted></_>
    <_>
      <rects>
        <_>
          19 20 2 2 -1.</_>
        <_>
          19 20 1 1 2.</_>
        <_>
          20 21 1 1 2.</_></rects>
      <tilted>0</tilted></_>
    <_>
      <rects>
        <_>
          19 20 2 4 -1.</_>
        <_>
          19 20 1 2 2.</_>
        <_>
          20 22 1 2 2.</_></rects>
      <tilted>0</tilted></_>
    <_>
      <rects>
        <_>
          19 21 2 3 -1.</_>
        <_>
          20 21 1 3 2.</_></rects>
      <tilted>0</tilted></_>
    <_>
      <rects>
        <_>
          20 2 3 12 -1.</_>
        <_>
          20 8 3 6 2.</_></rects>
      <tilted>0</tilted></_>
    <_>
      <rects>
        <_>
          20 5 2 1 -1.</_>
        <_>
          21 5 1 1 2.</_></rects>
      <tilted>0</tilted></_>
    <_>
      <rects>
        <_>
          20 5 2 3 -1.</_>
        <_>
          21 5 1 3 2.</_></rects>
      <tilted>0</tilted></_>
    <_>
      <rects>
        <_>
          20 6 1 3 -1.</_>
        <_>
          20 7 1 1 2.</_></rects>
      <tilted>0</tilted></_>
    <_>
      <rects>
        <_>
          20 6 4 4 -1.</_>
        <_>
          20 6 2 2 2.</_>
        <_>
          22 8 2 2 2.</_></rects>
      <tilted>0</tilted></_>
    <_>
      <rects>
        <_>
          20 7 2 2 -1.</_>
        <_>
          21 7 1 2 2.</_></rects>
      <tilted>0</tilted></_>
    <_>
      <rects>
        <_>
          20 7 4 4 -1.</_>
        <_>
          22 7 2 4 2.</_></rects>
      <tilted>0</tilted></_>
    <_>
      <rects>
        <_>
          20 8 1 2 -1.</_>
        <_>
          20 9 1 1 2.</_></rects>
      <tilted>0</tilted></_>
    <_>
      <rects>
        <_>
          20 9 4 13 -1.</_>
        <_>
          22 9 2 13 2.</_></rects>
      <tilted>0</tilted></_>
    <_>
      <rects>
        <_>
          20 12 2 10 -1.</_>
        <_>
          20 17 2 5 2.</_></rects>
      <tilted>0</tilted></_>
    <_>
      <rects>
        <_>
          20 12 4 11 -1.</_>
        <_>
          22 12 2 11 2.</_></rects>
      <tilted>0</tilted></_>
    <_>
      <rects>
        <_>
          20 16 2 8 -1.</_>
        <_>
          21 16 1 8 2.</_></rects>
      <tilted>0</tilted></_>
    <_>
      <rects>
        <_>
          20 20 2 2 -1.</_>
        <_>
          20 20 1 1 2.</_>
        <_>
          21 21 1 1 2.</_></rects>
      <tilted>0</tilted></_>
    <_>
      <rects>
        <_>
          21 0 2 8 -1.</_>
        <_>
          21 4 2 4 2.</_></rects>
      <tilted>0</tilted></_>
    <_>
      <rects>
        <_>
          21 5 3 4 -1.</_>
        <_>
          21 7 3 2 2.</_></rects>
      <tilted>0</tilted></_>
    <_>
      <rects>
        <_>
          21 6 2 8 -1.</_>
        <_>
          22 6 1 8 2.</_></rects>
      <tilted>0</tilted></_>
    <_>
      <rects>
        <_>
          21 7 2 2 -1.</_>
        <_>
          21 8 2 1 2.</_></rects>
      <tilted>0</tilted></_>
    <_>
      <rects>
        <_>
          21 17 2 4 -1.</_>
        <_>
          21 19 2 2 2.</_></rects>
      <tilted>0</tilted></_>
    <_>
      <rects>
        <_>
          22 1 2 10 -1.</_>
        <_>
          23 1 1 10 2.</_></rects>
      <tilted>0</tilted></_>
    <_>
      <rects>
        <_>
          22 1 2 20 -1.</_>
        <_>
          23 1 1 20 2.</_></rects>
      <tilted>0</tilted></_>
    <_>
      <rects>
        <_>
          22 2 2 21 -1.</_>
        <_>
          23 2 1 21 2.</_></rects>
      <tilted>0</tilted></_>
    <_>
      <rects>
        <_>
          22 3 2 19 -1.</_>
        <_>
          23 3 1 19 2.</_></rects>
      <tilted>0</tilted></_>
    <_>
      <rects>
        <_>
          22 4 2 4 -1.</_>
        <_>
          23 4 1 4 2.</_></rects>
      <tilted>0</tilted></_>
    <_>
      <rects>
        <_>
          22 4 2 18 -1.</_>
        <_>
          22 4 1 9 2.</_>
        <_>
          23 13 1 9 2.</_></rects>
      <tilted>0</tilted></_>
    <_>
      <rects>
        <_>
          22 12 2 4 -1.</_>
        <_>
          23 12 1 4 2.</_></rects>
      <tilted>0</tilted></_>
    <_>
      <rects>
        <_>
          22 12 2 2 -1.</_>
        <_>
          22 13 2 1 2.</_></rects>
      <tilted>0</tilted></_>
    <_>
      <rects>
        <_>
          22 16 1 2 -1.</_>
        <_>
          22 17 1 1 2.</_></rects>
      <tilted>0</tilted></_>
    <_>
      <rects>
        <_>
          22 19 2 2 -1.</_>
        <_>
          22 19 1 1 2.</_>
        <_>
          23 20 1 1 2.</_></rects>
      <tilted>0</tilted></_>
    <_>
      <rects>
        <_>
          22 20 2 4 -1.</_>
        <_>
          22 20 1 2 2.</_>
        <_>
          23 22 1 2 2.</_></rects>
      <tilted>0</tilted></_>
    <_>
      <rects>
        <_>
          22 21 2 2 -1.</_>
        <_>
          22 21 1 1 2.</_>
        <_>
          23 22 1 1 2.</_></rects>
      <tilted>0</tilted></_>
    <_>
      <rects>
        <_>
          22 21 2 2 -1.</_>
        <_>
          22 22 2 1 2.</_></rects>
      <tilted>0</tilted></_>
    <_>
      <rects>
        <_>
          23 11 1 4 -1.</_>
        <_>
          23 13 1 2 2.</_></rects>
      <tilted>0</tilted></_>
    <_>
      <rects>
        <_>
          23 12 1 2 -1.</_>
        <_>
          23 13 1 1 2.</_></rects>
      <tilted>0</tilted></_>
    <_>
      <rects>
        <_>
          23 15 1 2 -1.</_>
        <_>
          23 16 1 1 2.</_></rects>
      <tilted>0</tilted></_></features></cascade>
</opencv_storage>
