<?xml version="1.0"?>
<opencv_storage>
<stage24>
  <maxWeakCount>15</maxWeakCount>
  <stageThreshold>-7.6350402832031250e-01</stageThreshold>
  <weakClassifiers>
    <_>
      <internalNodes>
        0 -1 143301 1.0075661353766918e-02</internalNodes>
      <leafValues>
        -1.4920635521411896e-01 5.5294120311737061e-01</leafValues></_>
    <_>
      <internalNodes>
        0 -1 38547 4.2230188846588135e-02</internalNodes>
      <leafValues>
        -8.6851105093955994e-02 8.3179724216461182e-01</leafValues></_>
    <_>
      <internalNodes>
        0 -1 134486 -8.4166172891855240e-03</internalNodes>
      <leafValues>
        6.9328624010086060e-01 -1.6262628138065338e-01</leafValues></_>
    <_>
      <internalNodes>
        0 -1 161898 5.4603855824097991e-04</internalNodes>
      <leafValues>
        2.1587733924388885e-01 -4.4493478536605835e-01</leafValues></_>
    <_>
      <internalNodes>
        0 -1 154504 -4.9738250672817230e-03</internalNodes>
      <leafValues>
        -9.0035390853881836e-01 8.7838903069496155e-02</leafValues></_>
    <_>
      <internalNodes>
        0 -1 98976 8.2353223115205765e-03</internalNodes>
      <leafValues>
        -9.5415420830249786e-02 8.4581142663955688e-01</leafValues></_>
    <_>
      <internalNodes>
        0 -1 134218 2.1984111517667770e-03</internalNodes>
      <leafValues>
        9.4146601855754852e-02 -8.8992923498153687e-01</leafValues></_>
    <_>
      <internalNodes>
        0 -1 94814 -4.8554339446127415e-03</internalNodes>
      <leafValues>
        6.7680716514587402e-01 -1.2367051839828491e-01</leafValues></_>
    <_>
      <internalNodes>
        0 -1 106819 -2.3958261590451002e-03</internalNodes>
      <leafValues>
        -6.7622894048690796e-01 1.3422158360481262e-01</leafValues></_>
    <_>
      <internalNodes>
        0 -1 642 -3.9711561053991318e-02</internalNodes>
      <leafValues>
        -2.5824254751205444e-01 3.7227132916450500e-01</leafValues></_>
    <_>
      <internalNodes>
        0 -1 45557 -7.9611397814005613e-04</internalNodes>
      <leafValues>
        4.8083317279815674e-01 -2.1010598540306091e-01</leafValues></_>
    <_>
      <internalNodes>
        0 -1 154130 6.3439283985644579e-04</internalNodes>
      <leafValues>
        -2.2222244739532471e-01 4.6623411774635315e-01</leafValues></_>
    <_>
      <internalNodes>
        0 -1 154647 -1.3899512123316526e-03</internalNodes>
      <leafValues>
        6.7236804962158203e-01 -1.3520295917987823e-01</leafValues></_>
    <_>
      <internalNodes>
        0 -1 31396 -2.7372783422470093e-01</internalNodes>
      <leafValues>
        1.9578766822814941e-01 -5.2441602945327759e-01</leafValues></_>
    <_>
      <internalNodes>
        0 -1 162304 -6.0658389702439308e-04</internalNodes>
      <leafValues>
        -6.7834639549255371e-01 1.1164467036724091e-01</leafValues></_></weakClassifiers></stage24>
</opencv_storage>
