<?xml version="1.0"?>
<opencv_storage>
<stage18>
  <maxWeakCount>16</maxWeakCount>
  <stageThreshold>-4.7436872124671936e-01</stageThreshold>
  <weakClassifiers>
    <_>
      <internalNodes>
        0 -1 12260 -2.9474529437720776e-03</internalNodes>
      <leafValues>
        -7.1929824352264404e-01 1.1953353136777878e-01</leafValues></_>
    <_>
      <internalNodes>
        0 -1 13371 -1.3364611193537712e-02</internalNodes>
      <leafValues>
        2.9038512706756592e-01 -2.9236945509910583e-01</leafValues></_>
    <_>
      <internalNodes>
        0 -1 43565 -2.8278115205466747e-03</internalNodes>
      <leafValues>
        3.1658902764320374e-01 -3.0493098497390747e-01</leafValues></_>
    <_>
      <internalNodes>
        0 -1 160510 -1.9771957304328680e-03</internalNodes>
      <leafValues>
        -8.8566756248474121e-01 9.8584547638893127e-02</leafValues></_>
    <_>
      <internalNodes>
        0 -1 156604 -2.9706456698477268e-03</internalNodes>
      <leafValues>
        4.1339871287345886e-01 -2.3256202042102814e-01</leafValues></_>
    <_>
      <internalNodes>
        0 -1 57717 -3.1516854651272297e-03</internalNodes>
      <leafValues>
        7.1325862407684326e-01 -1.4622499048709869e-01</leafValues></_>
    <_>
      <internalNodes>
        0 -1 76 5.4610064253211021e-03</internalNodes>
      <leafValues>
        -1.7474387586116791e-01 4.3874034285545349e-01</leafValues></_>
    <_>
      <internalNodes>
        0 -1 105673 -3.8007088005542755e-04</internalNodes>
      <leafValues>
        4.0053200721740723e-01 -2.1622818708419800e-01</leafValues></_>
    <_>
      <internalNodes>
        0 -1 41492 -1.8464471213519573e-03</internalNodes>
      <leafValues>
        -8.3690440654754639e-01 8.8767491281032562e-02</leafValues></_>
    <_>
      <internalNodes>
        0 -1 1254 -3.4300307743251324e-03</internalNodes>
      <leafValues>
        5.9328126907348633e-01 -1.6260358691215515e-01</leafValues></_>
    <_>
      <internalNodes>
        0 -1 36643 -2.4529672227799892e-03</internalNodes>
      <leafValues>
        -5.1472902297973633e-01 1.9049809873104095e-01</leafValues></_>
    <_>
      <internalNodes>
        0 -1 79027 5.8959540911018848e-04</internalNodes>
      <leafValues>
        -2.4431122839450836e-01 3.8074272871017456e-01</leafValues></_>
    <_>
      <internalNodes>
        0 -1 58357 8.7650306522846222e-03</internalNodes>
      <leafValues>
        1.4952822029590607e-01 -7.9227155447006226e-01</leafValues></_>
    <_>
      <internalNodes>
        0 -1 159260 -1.0535744950175285e-02</internalNodes>
      <leafValues>
        3.8616314530372620e-01 -2.4660496413707733e-01</leafValues></_>
    <_>
      <internalNodes>
        0 -1 71356 1.6341942548751831e-01</internalNodes>
      <leafValues>
        -1.4579540491104126e-01 7.6117485761642456e-01</leafValues></_>
    <_>
      <internalNodes>
        0 -1 37582 -5.2471193484961987e-03</internalNodes>
      <leafValues>
        5.8758610486984253e-01 -1.5114471316337585e-01</leafValues></_></weakClassifiers></stage18>
</opencv_storage>
