<?xml version="1.0"?>
<opencv_storage>
<stage5>
  <maxWeakCount>7</maxWeakCount>
  <stageThreshold>-1.1263406276702881e+00</stageThreshold>
  <weakClassifiers>
    <_>
      <internalNodes>
        0 -1 80293 -3.2101240009069443e-02</internalNodes>
      <leafValues>
        5.0549453496932983e-01 -4.2201834917068481e-01</leafValues></_>
    <_>
      <internalNodes>
        0 -1 92465 6.0842810198664665e-03</internalNodes>
      <leafValues>
        -5.0848120450973511e-01 4.0338405966758728e-01</leafValues></_>
    <_>
      <internalNodes>
        0 -1 90472 8.1895012408494949e-03</internalNodes>
      <leafValues>
        -2.6249960064888000e-01 6.3582909107208252e-01</leafValues></_>
    <_>
      <internalNodes>
        0 -1 51146 -9.6918586641550064e-03</internalNodes>
      <leafValues>
        6.3449549674987793e-01 -2.6079192757606506e-01</leafValues></_>
    <_>
      <internalNodes>
        0 -1 57044 -4.9777723848819733e-02</internalNodes>
      <leafValues>
        6.5971767902374268e-01 -2.1123665571212769e-01</leafValues></_>
    <_>
      <internalNodes>
        0 -1 6470 1.3904103636741638e-01</internalNodes>
      <leafValues>
        -2.4656583368778229e-01 7.1830826997756958e-01</leafValues></_>
    <_>
      <internalNodes>
        0 -1 15464 2.1055301651358604e-02</internalNodes>
      <leafValues>
        -1.7962114512920380e-01 7.9886960983276367e-01</leafValues></_></weakClassifiers></stage5>
</opencv_storage>
