<?xml version="1.0"?>
<opencv_storage>
<stage12>
  <maxWeakCount>5</maxWeakCount>
  <stageThreshold>-4.0520584583282471e-01</stageThreshold>
  <weakClassifiers>
    <_>
      <internalNodes>
        0 -1 7303 -787025575 -1067905023 1392525328 419775256 9470083
        134350856 -502742911 466596875</internalNodes>
      <leafValues>
        -6.1764705181121826e-01 4.5652174949645996e-01</leafValues></_>
    <_>
      <internalNodes>
        0 -1 6088 -25668270 -5800142 2096562109 -753807 -50340722
        -411074561 -1628127746 -1104117889</internalNodes>
      <leafValues>
        -4.4212892651557922e-01 6.5705001354217529e-01</leafValues></_>
    <_>
      <internalNodes>
        0 -1 6428 -2001305255 1673691393 268599753 -718237419
        -1585446486 -251133823 -654274023 -1098323752</internalNodes>
      <leafValues>
        -5.8151233196258545e-01 5.6659859418869019e-01</leafValues></_>
    <_>
      <internalNodes>
        0 -1 239 -158077429 -139461087 1392475448 2137878048 1308585695
        100663238 1879013240 -526470</internalNodes>
      <leafValues>
        -4.4817525148391724e-01 7.0049238204956055e-01</leafValues></_>
    <_>
      <internalNodes>
        0 -1 7442 1363386375 1096386771 1073795074 -867631101 1749516418
        1484849294 -1056667190 -821326901</internalNodes>
      <leafValues>
        -4.8909002542495728e-01 6.4041137695312500e-01</leafValues></_></weakClassifiers></stage12>
</opencv_storage>
