<?xml version="1.0"?>
<opencv_storage>
<stage18>
  <maxWeakCount>6</maxWeakCount>
  <stageThreshold>-4.4178676605224609e-01</stageThreshold>
  <weakClassifiers>
    <_>
      <internalNodes>
        0 -1 2018 -246267404 289673412 -2130701925 -49283048 1553073236
        -1778319232 1879139049 2126677128</internalNodes>
      <leafValues>
        -6.0990715026855469e-01 4.1299790143966675e-01</leafValues></_>
    <_>
      <internalNodes>
        0 -1 390 1094926399 -1332866301 1610891274 -1037766398 139070147
        1107427465 1108025481 -367643793</internalNodes>
      <leafValues>
        -5.9598940610885620e-01 4.7742635011672974e-01</leafValues></_>
    <_>
      <internalNodes>
        0 -1 8387 1745494349 420513883 98384 -1575790591 -801084918
        -1325363199 -2128571186 -454318038</internalNodes>
      <leafValues>
        -5.6963115930557251e-01 4.9010211229324341e-01</leafValues></_>
    <_>
      <internalNodes>
        0 -1 3827 -898187021 -1356677200 -9 935114720 1072692698 -49153
        1056849823 -1880467971</internalNodes>
      <leafValues>
        -4.7644427418708801e-01 6.3220101594924927e-01</leafValues></_>
    <_>
      <internalNodes>
        0 -1 157 -1599712448 -1877404600 1078502673 -719781887
        1347002985 -1516134272 -2130624361 -504590302</internalNodes>
      <leafValues>
        -7.3403984308242798e-01 4.1029623150825500e-01</leafValues></_>
    <_>
      <internalNodes>
        0 -1 4857 336446081 1560461895 1140887626 -1048018808 1276249503
        -2130704384 1207993322 1704446089</internalNodes>
      <leafValues>
        -6.6887885332107544e-01 4.6158677339553833e-01</leafValues></_></weakClassifiers></stage18>
</opencv_storage>
